{
  "version": "1.0",
  "truncation": null,
  "padding": null,
  "added_tokens": [
    {
      "id": 0,
      "content": "<cls>",
      "single_word": false,
      "lstrip": false,
      "rstrip": false,
      "normalized": false,
      "special": true
    },
    {
      "id": 1,
      "content": "<sep>",
      "single_word": false,
      "lstrip": false,
      "rstrip": false,
      "normalized": false,
      "special": true
    },
    {
      "id": 2,
      "content": "<unk>",
      "single_word": false,
      "lstrip": false,
      "rstrip": false,
      "normalized": false,
      "special": true
    },
    {
      "id": 3,
      "content": "<pad>",
      "single_word": false,
      "lstrip": false,
      "rstrip": false,
      "normalized": false,
      "special": true
    },
    {
      "id": 4,
      "content": "<mask>",
      "single_word": false,
      "lstrip": false,
      "rstrip": false,
      "normalized": false,
      "special": true
    },
    {
      "id": 5,
      "content": "<s>",
      "single_word": false,
      "lstrip": false,
      "rstrip": false,
      "normalized": false,
      "special": true
    },
    {
      "id": 6,
      "content": "</s>",
      "single_word": false,
      "lstrip": false,
      "rstrip": false,
      "normalized": false,
      "special": true
    }
  ],
  "normalizer": {
    "type": "Sequence",
    "normalizers": [
      {
        "type": "Replace",
        "pattern": {
          "String": "``"
        },
        "content": "\""
      },
      {
        "type": "Replace",
        "pattern": {
          "String": "''"
        },
        "content": "\""
      },
      {
        "type": "NFKD"
      },
      {
        "type": "StripAccents"
      },
      {
        "type": "Replace",
        "pattern": {
          "Regex": " {2,}"
        },
        "content": " "
      }
    ]
  },
  "pre_tokenizer": {
    "type": "Metaspace",
    "replacement": "▁",
    "add_prefix_space": true
  },
  "post_processor": {
    "type": "TemplateProcessing",
    "single": [
      {
        "Sequence": {
          "id": "A",
          "type_id": 0
        }
      },
      {
        "SpecialToken": {
          "id": "<sep>",
          "type_id": 0
        }
      },
      {
        "SpecialToken": {
          "id": "<cls>",
          "type_id": 2
        }
      }
    ],
    "pair": [
      {
        "Sequence": {
          "id": "A",
          "type_id": 0
        }
      },
      {
        "SpecialToken": {
          "id": "<sep>",
          "type_id": 0
        }
      },
      {
        "Sequence": {
          "id": "B",
          "type_id": 1
        }
      },
      {
        "SpecialToken": {
          "id": "<sep>",
          "type_id": 1
        }
      },
      {
        "SpecialToken": {
          "id": "<cls>",
          "type_id": 2
        }
      }
    ],
    "special_tokens": {
      "<cls>": {
        "id": "<cls>",
        "ids": [
          0
        ],
        "tokens": [
          "<cls>"
        ]
      },
      "<sep>": {
        "id": "<sep>",
        "ids": [
          1
        ],
        "tokens": [
          "<sep>"
        ]
      }
    }
  },
  "decoder": {
    "type": "Metaspace",
    "replacement": "▁",
    "add_prefix_space": true
  },
  "model": {
    "type": "Unigram",
    "unk_id": 2,
    "vocab": [
      [
        "<cls>",
        0.0
      ],
      [
        "<sep>",
        0.0
      ],
      [
        "<unk>",
        0.0
      ],
      [
        "<pad>",
        0.0
      ],
      [
        "<mask>",
        0.0
      ],
      [
        "<s>",
        0.0
      ],
      [
        "</s>",
        0.0
      ],
      [
        "\n",
        -3.014157485411653
      ],
      [
        "▁",
        -3.9129621323125754
      ],
      [
        "도",
        -4.551420285794061
      ],
      [
        "이",
        -4.58522515541109
      ],
      [
        ".",
        -4.6308973019707675
      ],
      [
        "는",
        -4.708393628902384
      ],
      [
        "가",
        -4.774036511100894
      ],
      [
        "은",
        -5.041753110676845
      ],
      [
        "고",
        -5.1081999203627575
      ],
      [
        "..",
        -5.140638895978379
      ],
      [
        "에",
        -5.215194573315012
      ],
      [
        "을",
        -5.316853745559763
      ],
      [
        "...",
        -5.366367874785697
      ],
      [
        "지",
        -5.543612649822354
      ],
      [
        "ᆫ",
        -5.55218609620384
      ],
      [
        ",",
        -5.589917038321996
      ],
      [
        "의",
        -5.658370356022388
      ],
      [
        "?",
        -5.68429808109175
      ],
      [
        "만",
        -5.696590989526779
      ],
      [
        "를",
        -5.782783696476656
      ],
      [
        "▁다",
        -5.796467108929633
      ],
      [
        "▁진짜",
        -5.836469790505962
      ],
      [
        "로",
        -5.841758901407962
      ],
      [
        "▁너무",
        -5.909379287649305
      ],
      [
        "서",
        -5.915421581654492
      ],
      [
        "나",
        -5.947997395118273
      ],
      [
        "~",
        -5.949326909603922
      ],
      [
        "다",
        -5.967178804542735
      ],
      [
        "게",
        -5.982481822915492
      ],
      [
        "하고",
        -5.990984070331731
      ],
      [
        "▁이",
        -6.092563030529934
      ],
      [
        "한",
        -6.09337334011467
      ],
      [
        "▁왜",
        -6.0941423615098795
      ],
      [
        "▁잘",
        -6.136722191911913
      ],
      [
        "▁안",
        -6.149094453747395
      ],
      [
        "들",
        -6.164308737346726
      ],
      [
        "으로",
        -6.204952530721284
      ],
      [
        "▁더",
        -6.224298838297461
      ],
      [
        "면",
        -6.227164679249382
      ],
      [
        "!",
        -6.252812191819977
      ],
      [
        "▁그",
        -6.281295510123803
      ],
      [
        "네",
        -6.2988994368206
      ],
      [
        "에서",
        -6.38314627589817
      ],
      [
        "라",
        -6.396033291985649
      ],
      [
        "▁좀",
        -6.408605796132385
      ],
      [
        "야",
        -6.4885553671396945
      ],
      [
        "▁그냥",
        -6.496542014589705
      ],
      [
        "기",
        -6.540723229977175
      ],
      [
        "아",
        -6.551213748732387
      ],
      [
        "과",
        -6.569670992223244
      ],
      [
        "ᆯ",
        -6.5968491648265015
      ],
      [
        "~~",
        -6.629072977866715
      ],
      [
        "하는",
        -6.640722860687692
      ],
      [
        "▁ᄏᄏ",
        -6.651611444592914
      ],
      [
        "까지",
        -6.7067362426908925
      ],
      [
        "자",
        -6.712712546695181
      ],
      [
        "ᆷ",
        -6.71362933481786
      ],
      [
        "해",
        -6.717367222840371
      ],
      [
        "랑",
        -6.717474725902942
      ],
      [
        "인데",
        -6.7620627834403955
      ],
      [
        "요",
        -6.779774403697832
      ],
      [
        "인",
        -6.780954614798853
      ],
      [
        "씨",
        -6.781202684107422
      ],
      [
        "니",
        -6.791408594275788
      ],
      [
        "해서",
        -6.808736834805366
      ],
      [
        "▁정말",
        -6.845668100930512
      ],
      [
        "....",
        -6.867959307194699
      ],
      [
        "▁참",
        -6.869732326563687
      ],
      [
        "▁저",
        -6.877144348057257
      ],
      [
        "와",
        -6.877896660632928
      ],
      [
        "한테",
        -6.932750555078371
      ],
      [
        "!!",
        -6.934828540320066
      ],
      [
        "▁ᄏᄏᄏ",
        -6.959403553880744
      ],
      [
        "▁많이",
        -6.9621508868248565
      ],
      [
        "대",
        -6.990355899604845
      ],
      [
        "▁뭐",
        -7.000755202380207
      ],
      [
        "어",
        -7.004232871616425
      ],
      [
        "▁못",
        -7.023538486402666
      ],
      [
        "ᆼ",
        -7.024984640067636
      ],
      [
        "사",
        -7.036731204382312
      ],
      [
        "시",
        -7.037981388914632
      ],
      [
        "▁여자",
        -7.038533143671232
      ],
      [
        "▁한",
        -7.03915730464122
      ],
      [
        "들이",
        -7.041713937334743
      ],
      [
        "▁또",
        -7.042125028226732
      ],
      [
        "이나",
        -7.058642049753237
      ],
      [
        "▁사람",
        -7.065106816609912
      ],
      [
        "▁드라마",
        -7.073230173276199
      ],
      [
        "▁수",
        -7.076315184861736
      ],
      [
        "▁내",
        -7.077167275630073
      ],
      [
        "수",
        -7.080627594300754
      ],
      [
        "좀",
        -7.087281851434124
      ],
      [
        "ᄏᄏ",
        -7.087552958991495
      ],
      [
        "보다",
        -7.088568936252697
      ],
      [
        "▁근데",
        -7.094432440179775
      ],
      [
        "라고",
        -7.099449368414659
      ],
      [
        "▁이런",
        -7.103246856665246
      ],
      [
        "▁아",
        -7.114951933527857
      ],
      [
        "▁넘",
        -7.132437001596877
      ],
      [
        "냐",
        -7.13349379421307
      ],
      [
        "구",
        -7.140639209125133
      ],
      [
        "▁연기",
        -7.156578520710999
      ],
      [
        "▁돈",
        -7.157116788612486
      ],
      [
        "??",
        -7.171617822948027
      ],
      [
        "▁말",
        -7.179779106887988
      ],
      [
        "▁나",
        -7.182680509213746
      ],
      [
        "▁아니",
        -7.183619083651143
      ],
      [
        "하면",
        -7.195039027786029
      ],
      [
        "ᆺ",
        -7.196628220376331
      ],
      [
        "▁이제",
        -7.198942242701527
      ],
      [
        "▁난",
        -7.205019924862844
      ],
      [
        "주",
        -7.206561709958088
      ],
      [
        "리",
        -7.209137891834883
      ],
      [
        "안",
        -7.2145485726245955
      ],
      [
        "▁개",
        -7.217528949938046
      ],
      [
        "▁댓글",
        -7.218154613396056
      ],
      [
        "▁무슨",
        -7.222900905005568
      ],
      [
        "거",
        -7.238126554471961
      ],
      [
        "▁방송",
        -7.269258972430681
      ],
      [
        "일",
        -7.271129529101819
      ],
      [
        "▁남자",
        -7.2717317359713505
      ],
      [
        "▁거",
        -7.278551391331069
      ],
      [
        "이랑",
        -7.280683460612781
      ],
      [
        "▁하는",
        -7.285212124830858
      ],
      [
        "▁ᄏ",
        -7.3136227332164765
      ],
      [
        "처럼",
        -7.313803103182732
      ],
      [
        "는데",
        -7.317153263392418
      ],
      [
        "▁하고",
        -7.327377093205074
      ],
      [
        "상",
        -7.335712565770869
      ],
      [
        "▁결혼",
        -7.337779334801667
      ],
      [
        "▁좋은",
        -7.342476945090896
      ],
      [
        "▁지",
        -7.364391759602926
      ],
      [
        "^^",
        -7.366611663000183
      ],
      [
        "▁일",
        -7.373118141536203
      ],
      [
        "는거",
        -7.374288212852159
      ],
      [
        "님",
        -7.379566140532571
      ],
      [
        "▁보고",
        -7.3991914759586095
      ],
      [
        "여",
        -7.410804890730457
      ],
      [
        "치",
        -7.411843394887176
      ],
      [
        "▁자기",
        -7.426462014250127
      ],
      [
        "하",
        -7.432661577436875
      ],
      [
        "▁기사",
        -7.441708046654485
      ],
      [
        "ᄏ",
        -7.449174718719909
      ],
      [
        "▁그렇게",
        -7.455153951397625
      ],
      [
        "!!!",
        -7.456007713578289
      ],
      [
        "▁연예인",
        -7.460824537506197
      ],
      [
        "▁이렇게",
        -7.467768280703881
      ],
      [
        "▁다른",
        -7.477626348302399
      ],
      [
        "임",
        -7.477810385222542
      ],
      [
        "정",
        -7.479907569954223
      ],
      [
        "하게",
        -7.480048048114044
      ],
      [
        "▁지금",
        -7.492044057586069
      ],
      [
        "할",
        -7.5027602519388115
      ],
      [
        "▁아니고",
        -7.509169069334488
      ],
      [
        "장",
        -7.510617996638782
      ],
      [
        "미",
        -7.516655501884102
      ],
      [
        "ᄏᄏᄏ",
        -7.526274209581651
      ],
      [
        "▁있는",
        -7.529171863429129
      ],
      [
        "건",
        -7.534298424950968
      ],
      [
        "는게",
        -7.544158512664476
      ],
      [
        "▁사",
        -7.545412775377931
      ],
      [
        "부터",
        -7.54543519343501
      ],
      [
        "냐?",
        -7.547653188909669
      ],
      [
        "보",
        -7.551825355135186
      ],
      [
        "~~~",
        -7.552319801628483
      ],
      [
        "비",
        -7.552699876128928
      ],
      [
        "들은",
        -7.555771657013873
      ],
      [
        "우",
        -7.55725535005107
      ],
      [
        "진",
        -7.560357651951547
      ],
      [
        "▁얼마나",
        -7.563599393728284
      ],
      [
        "신",
        -7.565772881890304
      ],
      [
        "중",
        -7.568352742128768
      ],
      [
        "▁그리고",
        -7.568517553650548
      ],
      [
        "▁사람이",
        -7.570014357032212
      ],
      [
        "에게",
        -7.570452564251429
      ],
      [
        "▁솔직히",
        -7.5719558991231395
      ],
      [
        "▁오",
        -7.572945964083603
      ],
      [
        "같은",
        -7.573912337301795
      ],
      [
        "▁다시",
        -7.576918823777444
      ],
      [
        "▁것",
        -7.578508895442043
      ],
      [
        "니까",
        -7.585544479665618
      ],
      [
        "내",
        -7.589324242192141
      ],
      [
        "다.",
        -7.591452459606776
      ],
      [
        "▁같은",
        -7.593413634268922
      ],
      [
        "ᆻ는데",
        -7.594250585479028
      ],
      [
        "면서",
        -7.594573677045505
      ],
      [
        "전",
        -7.597786460809617
      ],
      [
        "성",
        -7.602866833499219
      ],
      [
        "오",
        -7.604471723183796
      ],
      [
        "▁저런",
        -7.626527558306749
      ],
      [
        "▁얼굴",
        -7.632595488528299
      ],
      [
        "▁꼭",
        -7.6341077662262755
      ],
      [
        "▁ᅲᅲ",
        -7.635522297292772
      ],
      [
        "이다",
        -7.640369276986421
      ],
      [
        "▁ᄏᄏᄏᄏ",
        -7.641076066652991
      ],
      [
        "적",
        -7.641192018514161
      ],
      [
        "▁내가",
        -7.643707724408077
      ],
      [
        "이라",
        -7.646526436638041
      ],
      [
        "▁전",
        -7.64779930719304
      ],
      [
        "하지",
        -7.666873972600715
      ],
      [
        "▁보면",
        -7.671470476751187
      ],
      [
        "보고",
        -7.674320864725715
      ],
      [
        "▁아니라",
        -7.677648250305541
      ],
      [
        "세",
        -7.683601299146519
      ],
      [
        "스",
        -7.692585809837872
      ],
      [
        "▁계속",
        -7.698734351330357
      ],
      [
        "▁배우",
        -7.698821687228316
      ],
      [
        "길",
        -7.699059377462829
      ],
      [
        "▁사람들",
        -7.704136392670511
      ],
      [
        "▁요즘",
        -7.710497390146976
      ],
      [
        "▁주",
        -7.715856653164669
      ],
      [
        "▁와",
        -7.723457758324411
      ],
      [
        "▁그런",
        -7.72405123307175
      ],
      [
        "▁하",
        -7.731031532235642
      ],
      [
        "때",
        -7.733935832954653
      ],
      [
        "▁역시",
        -7.734016525785307
      ],
      [
        "질",
        -7.741434236216268
      ],
      [
        "ᅲᅲ",
        -7.74485861909749
      ],
      [
        "▁우리",
        -7.745683413356691
      ],
      [
        "소",
        -7.74669287600549
      ],
      [
        "▁같이",
        -7.747144705672753
      ],
      [
        "부",
        -7.748417053476338
      ],
      [
        "ᆫ다",
        -7.7523710506052925
      ],
      [
        "▁애",
        -7.758812524793411
      ],
      [
        "이라고",
        -7.761966338518576
      ],
      [
        "지만",
        -7.764507625821382
      ],
      [
        "원",
        -7.768107286401033
      ],
      [
        "▁제발",
        -7.774597485388048
      ],
      [
        "히",
        -7.784250067649191
      ],
      [
        "▁없는",
        -7.796338142429185
      ],
      [
        "▁할",
        -7.800312772357062
      ],
      [
        "제",
        -7.806263066900312
      ],
      [
        "개",
        -7.808799135961273
      ],
      [
        "던",
        -7.815852047470829
      ],
      [
        "며",
        -7.824541306904322
      ],
      [
        "▁누가",
        -7.826747954128729
      ],
      [
        "▁김",
        -7.83536268471976
      ],
      [
        "ᆫ거",
        -7.845670039229589
      ],
      [
        "ᅲ",
        -7.846419553586577
      ],
      [
        "입니다.",
        -7.849700492393154
      ],
      [
        "▁그만",
        -7.852605819988646
      ],
      [
        "조",
        -7.854471869843328
      ],
      [
        "든",
        -7.854839791391305
      ],
      [
        "ᆨ",
        -7.856884987054395
      ],
      [
        "▁되",
        -7.8584520773300355
      ],
      [
        "▁생각",
        -7.858637641719092
      ],
      [
        "그",
        -7.859284295107678
      ],
      [
        "▁하나",
        -7.861294360777617
      ],
      [
        "▁노래",
        -7.87546497964556
      ],
      [
        "▁해",
        -7.8767016117007795
      ],
      [
        "요.",
        -7.880305547239388
      ],
      [
        "▁이게",
        -7.881396226166876
      ],
      [
        "유",
        -7.882651794421717
      ],
      [
        "▁그래도",
        -7.886682977434903
      ],
      [
        "▁.",
        -7.888463868130094
      ],
      [
        "ᆻ으면",
        -7.892102471510045
      ],
      [
        "두",
        -7.892571943309807
      ],
      [
        "화",
        -7.893531720778666
      ],
      [
        "ᆸ",
        -7.899783108040928
      ],
      [
        ")",
        -7.9010053909581455
      ],
      [
        "네요",
        -7.905342052482624
      ],
      [
        "마",
        -7.908617238216152
      ],
      [
        "▁대",
        -7.910706726737947
      ],
      [
        "▁욕",
        -7.913634954619813
      ],
      [
        "데",
        -7.914046911558234
      ],
      [
        "ᆫ데",
        -7.917658771664088
      ],
      [
        "함",
        -7.918152643325374
      ],
      [
        "더",
        -7.920399201863642
      ],
      [
        "???",
        -7.922748591817227
      ],
      [
        "해도",
        -7.923241742258549
      ],
      [
        "연",
        -7.924517100742191
      ],
      [
        "▁어떻게",
        -7.925903010789027
      ],
      [
        "▁남",
        -7.929479656165137
      ],
      [
        "살",
        -7.9318535080159425
      ],
      [
        "▁정",
        -7.932641946940464
      ],
      [
        "▁보",
        -7.932709661168035
      ],
      [
        "인지",
        -7.933515350555176
      ],
      [
        "▁엄청",
        -7.933710507952892
      ],
      [
        "보면",
        -7.9350289872272
      ],
      [
        "집",
        -7.938411046664868
      ],
      [
        "무",
        -7.941019767608854
      ],
      [
        "▁뭔",
        -7.951123830350419
      ],
      [
        "말",
        -7.95279592012788
      ],
      [
        "▁오늘",
        -7.952945222541984
      ],
      [
        "▁나도",
        -7.955847145331282
      ],
      [
        "해라",
        -7.959973054811892
      ],
      [
        "▁다들",
        -7.960859777398149
      ],
      [
        "▁저렇게",
        -7.961891504311556
      ],
      [
        "▁한국",
        -7.964696062720071
      ],
      [
        "용",
        -7.966360541036092
      ],
      [
        "동",
        -7.971161112000864
      ],
      [
        "하네",
        -7.971422426795826
      ],
      [
        "▁문제",
        -7.974067659048503
      ],
      [
        "방",
        -7.975020088467808
      ],
      [
        "차",
        -7.9754944523001985
      ],
      [
        "▁완전",
        -7.976729400852507
      ],
      [
        "려",
        -7.983439745631392
      ],
      [
        "이면",
        -7.983736602429568
      ],
      [
        "ᆻ다",
        -7.9872648188340705
      ],
      [
        "▁..",
        -7.994068450618487
      ],
      [
        "▁ᄒᄒ",
        -7.996280082790612
      ],
      [
        "▁이혼",
        -8.005803423785927
      ],
      [
        "명",
        -8.007136653148802
      ],
      [
        "잘",
        -8.009496126897726
      ],
      [
        "▁유",
        -8.011953518874174
      ],
      [
        "▁뭘",
        -8.012731835269243
      ],
      [
        "되",
        -8.01315472333293
      ],
      [
        "노",
        -8.015040058653012
      ],
      [
        "이고",
        -8.016110785733972
      ],
      [
        "는건",
        -8.017818241723688
      ],
      [
        "호",
        -8.020730668125687
      ],
      [
        "▁둘이",
        -8.024107052589331
      ],
      [
        "▁살",
        -8.025689373290499
      ],
      [
        "진짜",
        -8.026611233580509
      ],
      [
        "긴",
        -8.02822215451303
      ],
      [
        "이네",
        -8.034348063227887
      ],
      [
        "하는거",
        -8.036287388676381
      ],
      [
        "하다",
        -8.037753165952873
      ],
      [
        "▁자",
        -8.040054188255258
      ],
      [
        "던데",
        -8.040110338149065
      ],
      [
        "영",
        -8.040362304166566
      ],
      [
        "분",
        -8.047326366692184
      ],
      [
        "▁만나",
        -8.048534793281668
      ],
      [
        "하면서",
        -8.05187485673609
      ],
      [
        "▁악플",
        -8.055489531595143
      ],
      [
        "▁보기",
        -8.055493358255504
      ],
      [
        "▁좋아",
        -8.056167991318144
      ],
      [
        "▁영화",
        -8.075727406386564
      ],
      [
        "애",
        -8.083447437907633
      ],
      [
        "당",
        -8.088326509471814
      ],
      [
        "라도",
        -8.09040914296983
      ],
      [
        "▁잘못",
        -8.091234277729495
      ],
      [
        "라는",
        -8.09335919861844
      ],
      [
        "드",
        -8.096992639688795
      ],
      [
        "ᅮ",
        -8.100139700182174
      ],
      [
        "남",
        -8.100513687758317
      ],
      [
        "▁두",
        -8.101149766362141
      ],
      [
        "하나",
        -8.101555046275017
      ],
      [
        "▁엄마",
        -8.10357254469425
      ],
      [
        "줄",
        -8.105241413810894
      ],
      [
        "▁항상",
        -8.106443886957
      ],
      [
        "ᅳᅳ",
        -8.10684515787133
      ],
      [
        "심",
        -8.109701742447815
      ],
      [
        "ᆻ음",
        -8.109741890637483
      ],
      [
        "타",
        -8.112477501332028
      ],
      [
        "선",
        -8.11261616388313
      ],
      [
        ";;",
        -8.114330685771263
      ],
      [
        "▁때",
        -8.116250168400652
      ],
      [
        "없는",
        -8.122106915374657
      ],
      [
        "때문에",
        -8.122285905664453
      ],
      [
        "하는데",
        -8.122668445289392
      ],
      [
        "ᄏᄏᄏᄏ",
        -8.126537855564706
      ],
      [
        "▁사진",
        -8.127946443194103
      ],
      [
        "▁하면",
        -8.1298155560472
      ],
      [
        "▁비",
        -8.132187358683154
      ],
      [
        "더라",
        -8.140047446291234
      ],
      [
        "ᅮᅮ",
        -8.142506056923946
      ],
      [
        "▁인생",
        -8.143378099510667
      ],
      [
        "▁열심히",
        -8.145051841466334
      ],
      [
        "모",
        -8.145089742163988
      ],
      [
        "▁ᄍᄍ",
        -8.150651565531756
      ],
      [
        "▁너",
        -8.157627497932756
      ],
      [
        "재",
        -8.159054244801773
      ],
      [
        "▁이거",
        -8.161140420496057
      ],
      [
        "▁ᄏᄏᄏᄏᄏ",
        -8.166265378674535
      ],
      [
        "▁조",
        -8.167235419607495
      ],
      [
        "▁하지",
        -8.172928418829073
      ],
      [
        "▁뭐가",
        -8.175241035000715
      ],
      [
        "했는데",
        -8.17579758535103
      ],
      [
        "▁얘기",
        -8.176544902933722
      ],
      [
        "▁여자가",
        -8.178534594711738
      ],
      [
        "형",
        -8.178677995875407
      ],
      [
        "▁니",
        -8.180834657476034
      ],
      [
        "트",
        -8.18353670147259
      ],
      [
        "▁큰",
        -8.184826114779243
      ],
      [
        "▁건",
        -8.18526686419006
      ],
      [
        "란",
        -8.189550616654548
      ],
      [
        "▁제일",
        -8.190852055023674
      ],
      [
        "음",
        -8.191547258743704
      ],
      [
        "▁그게",
        -8.194186047538224
      ],
      [
        "식",
        -8.195942721781563
      ],
      [
        "▁그럼",
        -8.196305790606694
      ],
      [
        "없이",
        -8.198067471344881
      ],
      [
        "▁애들",
        -8.200888766917558
      ],
      [
        "♡",
        -8.203260184942812
      ],
      [
        "감",
        -8.203363289951893
      ],
      [
        "한거",
        -8.203770429611586
      ],
      [
        "▁사람들이",
        -8.204586326541792
      ],
      [
        "물",
        -8.205266794864851
      ],
      [
        "▁나이",
        -8.20543310883778
      ],
      [
        "▁빨리",
        -8.205463731125448
      ],
      [
        "등",
        -8.206632423062853
      ],
      [
        "▁그래서",
        -8.207280426519148
      ],
      [
        "박",
        -8.211766805376358
      ],
      [
        "▁ᅲ",
        -8.215118080275118
      ],
      [
        "▁모",
        -8.217330570497897
      ],
      [
        "▁서로",
        -8.21883773055311
      ],
      [
        "된",
        -8.219250543702907
      ],
      [
        "▁딱",
        -8.222402613598025
      ],
      [
        "인가",
        -8.222713825714855
      ],
      [
        "▁박",
        -8.224472388181402
      ],
      [
        "듯",
        -8.227822329892177
      ],
      [
        "▁제",
        -8.229845631606562
      ],
      [
        "세요",
        -8.23517644866214
      ],
      [
        "단",
        -8.237849503300476
      ],
      [
        "경",
        -8.23864208208843
      ],
      [
        "▁별로",
        -8.238759316891029
      ],
      [
        "방송",
        -8.23880504860733
      ],
      [
        "▁둘다",
        -8.23941358647891
      ],
      [
        "▁상",
        -8.241032188155938
      ],
      [
        "ᆸ니다",
        -8.243665966827997
      ],
      [
        "한다",
        -8.24367258844768
      ],
      [
        "▁아직",
        -8.24509832137988
      ],
      [
        ".....",
        -8.247667497005809
      ],
      [
        "▁이건",
        -8.247841652836934
      ],
      [
        "있는",
        -8.24801772294095
      ],
      [
        "▁말고",
        -8.248891260539715
      ],
      [
        "▁보는",
        -8.249236024376321
      ],
      [
        "후",
        -8.250362858631247
      ],
      [
        "디",
        -8.25461216930132
      ],
      [
        "▁차",
        -8.25646770607588
      ],
      [
        "▁일본",
        -8.257868465711148
      ],
      [
        "발",
        -8.259014941955366
      ],
      [
        "▁연애",
        -8.259133088286388
      ],
      [
        "▁많은",
        -8.261817316378696
      ],
      [
        "▁눈",
        -8.263803752502278
      ],
      [
        "(",
        -8.26475503617396
      ],
      [
        "▁한번",
        -8.26683622104816
      ],
      [
        "▁승리",
        -8.267866259487292
      ],
      [
        "적으로",
        -8.269201095126775
      ],
      [
        "사람",
        -8.269779763805177
      ],
      [
        "▁모습",
        -8.271711851876464
      ],
      [
        "▁사실",
        -8.273585109450044
      ],
      [
        "▁이미",
        -8.276206968192415
      ],
      [
        "ᅳ",
        -8.27775846762425
      ],
      [
        "▁아들",
        -8.278586616271049
      ],
      [
        "위",
        -8.282616346569158
      ],
      [
        "▁뭔가",
        -8.283303999001003
      ],
      [
        "▁분",
        -8.284522676628734
      ],
      [
        "▁남편",
        -8.284748492785612
      ],
      [
        "▁까",
        -8.285300448081188
      ],
      [
        "저",
        -8.28819274039342
      ],
      [
        "▁시",
        -8.288897772244672
      ],
      [
        "▁쳐",
        -8.290105794516538
      ],
      [
        "▁쓰레기",
        -8.290198167950043
      ],
      [
        "▁아직도",
        -8.292430376143225
      ],
      [
        "▁사랑",
        -8.293622306546874
      ],
      [
        "것",
        -8.297917006935135
      ],
      [
        "▁중",
        -8.298799632561899
      ],
      [
        "▁기",
        -8.299667740771174
      ],
      [
        "▁아이돌",
        -8.303288847720689
      ],
      [
        "적인",
        -8.304471089592937
      ],
      [
        "이다.",
        -8.304494368280926
      ],
      [
        "▁제대로",
        -8.304547727362595
      ],
      [
        "ᄒᄒ",
        -8.305831777905617
      ],
      [
        "▁딸",
        -8.308392755425027
      ],
      [
        "▁알고",
        -8.313408774075306
      ],
      [
        "▁아무리",
        -8.31503683733538
      ],
      [
        "실",
        -8.315421454085584
      ],
      [
        "▁아주",
        -8.317067999251384
      ],
      [
        "▁최고",
        -8.318562749306109
      ],
      [
        "▁혼자",
        -8.318756556090474
      ],
      [
        "▁이미지",
        -8.323063367390928
      ],
      [
        "▁말이",
        -8.326676048697648
      ],
      [
        "걸",
        -8.326782014405177
      ],
      [
        "너무",
        -8.326832762332849
      ],
      [
        "▁부",
        -8.327633043294675
      ],
      [
        "왜",
        -8.328490086654513
      ],
      [
        "▁때문에",
        -8.3290794378502
      ],
      [
        "▁강",
        -8.330475281872838
      ],
      [
        "민",
        -8.33146172269025
      ],
      [
        "▁같은데",
        -8.336264555066615
      ],
      [
        "▁어떤",
        -8.337868142820781
      ],
      [
        "봐",
        -8.33798797382137
      ],
      [
        "더니",
        -8.340222029444037
      ],
      [
        "이라도",
        -8.340556066512423
      ],
      [
        "짓",
        -8.341563721229026
      ],
      [
        "▁...",
        -8.342415754367096
      ],
      [
        "▁남자가",
        -8.342622289814033
      ],
      [
        "▁없고",
        -8.34299500599298
      ],
      [
        "▁진심",
        -8.343630774375757
      ],
      [
        "다가",
        -8.343778934342373
      ],
      [
        "이야",
        -8.34440545780017
      ],
      [
        "▁ᅳᅳ",
        -8.344668396251434
      ],
      [
        "네.",
        -8.345972481284617
      ],
      [
        "ᆻ네",
        -8.346592484921041
      ],
      [
        "▁앞으로",
        -8.34709469020961
      ],
      [
        "▁아빠",
        -8.347235878462131
      ],
      [
        "2",
        -8.34744074373363
      ],
      [
        "편",
        -8.34880102039402
      ],
      [
        "군",
        -8.351659667782306
      ],
      [
        "려고",
        -8.351712722922993
      ],
      [
        "▁구",
        -8.353122060430833
      ],
      [
        "국",
        -8.355196368846352
      ],
      [
        "▁걍",
        -8.356147823366037
      ],
      [
        "▁원래",
        -8.356230259547049
      ],
      [
        "▁기자",
        -8.359533472326973
      ],
      [
        "▁아닌데",
        -8.360896375077148
      ],
      [
        "까",
        -8.361880929295591
      ],
      [
        "▁어제",
        -8.366222319220835
      ],
      [
        "배",
        -8.368310634675323
      ],
      [
        "▁마약",
        -8.369356341062614
      ],
      [
        "파",
        -8.370464053301168
      ],
      [
        "ᄒ",
        -8.371759574180135
      ],
      [
        "▁미",
        -8.372568217948574
      ],
      [
        "배우",
        -8.372852441202664
      ],
      [
        "▁가족",
        -8.374074359100746
      ],
      [
        "지말고",
        -8.375006047042136
      ],
      [
        "▁무",
        -8.375595874276884
      ],
      [
        "▁활동",
        -8.377028888077175
      ],
      [
        "쳐",
        -8.379472718665001
      ],
      [
        "하는게",
        -8.3797219038032
      ],
      [
        "여자",
        -8.379770182473237
      ],
      [
        "▁쓰",
        -8.380721114487747
      ],
      [
        "병",
        -8.383660683060933
      ],
      [
        "급",
        -8.385392642091723
      ],
      [
        "▁없다",
        -8.386912894364453
      ],
      [
        "▁자꾸",
        -8.388024875775638
      ],
      [
        "▁입",
        -8.388163287467867
      ],
      [
        "▁있는데",
        -8.390998737627983
      ],
      [
        "▁노",
        -8.393249684425124
      ],
      [
        "▁성",
        -8.400058268988401
      ],
      [
        "회",
        -8.401818805631871
      ],
      [
        "'",
        -8.402912737448013
      ],
      [
        "입니다",
        -8.40433801005875
      ],
      [
        "못",
        -8.404393715299902
      ],
      [
        "이지",
        -8.406425091022735
      ],
      [
        "▁절대",
        -8.407707896017602
      ],
      [
        "ᆻ던",
        -8.409574395010319
      ],
      [
        "▁여기",
        -8.40966525772249
      ],
      [
        "▁그래",
        -8.410186219855218
      ],
      [
        "▁아닌",
        -8.411116366378108
      ],
      [
        "통",
        -8.412093150148857
      ],
      [
        "▁ᄒ",
        -8.412895700357051
      ],
      [
        "▁본인",
        -8.41552608955726
      ],
      [
        "러",
        -8.419384961564447
      ],
      [
        "▁피",
        -8.4210053732313
      ],
      [
        "▁재",
        -8.42121852685164
      ],
      [
        "▁줄",
        -8.424457404210823
      ],
      [
        "녀",
        -8.424779962093423
      ],
      [
        "해야",
        -8.42628151983639
      ],
      [
        "▁나는",
        -8.432798297056767
      ],
      [
        "ᆻ다고",
        -8.433477621119454
      ],
      [
        "ᆯ듯",
        -8.434058436314684
      ],
      [
        "년",
        -8.437238240354029
      ],
      [
        "보니",
        -8.438949384670883
      ],
      [
        "▁막",
        -8.43951831174629
      ],
      [
        "산",
        -8.43999517394534
      ],
      [
        "▁신",
        -8.441743273201707
      ],
      [
        "▁좋겠다",
        -8.443560169059626
      ],
      [
        "▁그리",
        -8.44395047106802
      ],
      [
        "래",
        -8.446069944166947
      ],
      [
        "1",
        -8.449722929249832
      ],
      [
        "▁인정",
        -8.450117802360255
      ],
      [
        "피",
        -8.450133118662329
      ],
      [
        "글",
        -8.450317315077381
      ],
      [
        "넘",
        -8.450778473562758
      ],
      [
        "종",
        -8.451763576988531
      ],
      [
        "▁가수",
        -8.452258642512607
      ],
      [
        "ᆷ.",
        -8.45570328195008
      ],
      [
        "겠다",
        -8.457844828670481
      ],
      [
        "프로",
        -8.458933253765466
      ],
      [
        "▁ᅮᅮ",
        -8.46060572206987
      ],
      [
        "기사",
        -8.461620565922821
      ],
      [
        "문",
        -8.461882406684536
      ],
      [
        "▁본",
        -8.463698992035338
      ],
      [
        "간",
        -8.464887843260113
      ],
      [
        "▁게",
        -8.467635515620572
      ],
      [
        "▁프로",
        -8.46850381060457
      ],
      [
        "▁누구",
        -8.469576251859507
      ],
      [
        "▁별",
        -8.471579313603339
      ],
      [
        "▁바로",
        -8.47358661143544
      ],
      [
        "▁원",
        -8.475609847888002
      ],
      [
        "드라마",
        -8.47599994676424
      ],
      [
        "▁피해자",
        -8.477052917513388
      ],
      [
        "▁마",
        -8.480935156045419
      ],
      [
        "▁아이",
        -8.482993365494108
      ],
      [
        "르",
        -8.484176560515825
      ],
      [
        "생각",
        -8.488297070984538
      ],
      [
        "거나",
        -8.489748400420059
      ],
      [
        "▁결국",
        -8.490616202712566
      ],
      [
        "태",
        -8.491654604224387
      ],
      [
        "▁나라",
        -8.493468132255458
      ],
      [
        "생",
        -8.494646679863003
      ],
      [
        "▁우리나라",
        -8.496231963704062
      ],
      [
        "ᆻ고",
        -8.497104118950535
      ],
      [
        "▁어디",
        -8.497399049289685
      ],
      [
        "ᆸ니다.",
        -8.498577011382164
      ],
      [
        "\"",
        -8.500025591820577
      ],
      [
        "다니",
        -8.501042336054637
      ],
      [
        "▁모든",
        -8.504919544863169
      ],
      [
        "▁예능",
        -8.507305672347973
      ],
      [
        "▁사람은",
        -8.509308990223406
      ],
      [
        "▁부모",
        -8.50972362496053
      ],
      [
        "▁소",
        -8.513230042636401
      ],
      [
        "▁어",
        -8.517364211909817
      ],
      [
        "인줄",
        -8.518176754733066
      ],
      [
        "▁2",
        -8.518601436711565
      ],
      [
        "▁배",
        -8.519415886697903
      ],
      [
        "져",
        -8.519892905501862
      ],
      [
        "▁모두",
        -8.520566291857424
      ],
      [
        "▁머리",
        -8.520895328363101
      ],
      [
        "▁클린",
        -8.522221017063675
      ],
      [
        "▁것도",
        -8.523105349650061
      ],
      [
        "대로",
        -8.524613521652313
      ],
      [
        "▁성형",
        -8.524915816161679
      ],
      [
        "▁인기",
        -8.525515441408524
      ],
      [
        "▁얼굴이",
        -8.526944957725412
      ],
      [
        "▁관심",
        -8.529134581459541
      ],
      [
        "▁느낌",
        -8.529506533255669
      ],
      [
        "하며",
        -8.531702902374212
      ],
      [
        "▁여자들",
        -8.531786377099666
      ],
      [
        "▁화이팅",
        -8.532739747700662
      ],
      [
        "▁감지",
        -8.532788024286083
      ],
      [
        "지.",
        -8.535320619417858
      ],
      [
        "ᆯ때",
        -8.536350859006474
      ],
      [
        "▁친구",
        -8.536472025507605
      ],
      [
        "부적절한",
        -8.536487814203973
      ],
      [
        "▁예쁜",
        -8.537623907233062
      ],
      [
        "▁타",
        -8.544423474141087
      ],
      [
        "▁1",
        -8.545790125516277
      ],
      [
        "밖에",
        -8.546155759621225
      ],
      [
        "봇이",
        -8.547197654976445
      ],
      [
        "법",
        -8.547529559645017
      ],
      [
        "같이",
        -8.54871588671809
      ],
      [
        "▁반",
        -8.550517371842949
      ],
      [
        "참",
        -8.550603267651178
      ],
      [
        "▁군대",
        -8.550648724519398
      ],
      [
        "▁글",
        -8.552025663215911
      ],
      [
        "▁없어",
        -8.552033384356301
      ],
      [
        "▁세",
        -8.552089606991224
      ],
      [
        "~^^",
        -8.55272028818377
      ],
      [
        "▁고소",
        -8.55370260514692
      ],
      [
        "▁이젠",
        -8.554054533304297
      ],
      [
        "지도",
        -8.554878443768382
      ],
      [
        "▁응원합니다",
        -8.555561723486036
      ],
      [
        "▁손",
        -8.560888286920626
      ],
      [
        "▁사건",
        -8.561022032360702
      ],
      [
        "▁처음",
        -8.56346086194776
      ],
      [
        "▁중국",
        -8.56477265719921
      ],
      [
        "반",
        -8.564850550665708
      ],
      [
        "▁프로그램",
        -8.564954231764924
      ],
      [
        "▁니들",
        -8.565583602458684
      ],
      [
        "▁여",
        -8.569301036170561
      ],
      [
        "▁소리",
        -8.569781277044687
      ],
      [
        "▁빼",
        -8.569879450744141
      ],
      [
        "▁야",
        -8.570312700200976
      ],
      [
        "▁우",
        -8.57154637758778
      ],
      [
        "중에",
        -8.572504433481797
      ],
      [
        "놓고",
        -8.573716079427518
      ],
      [
        "▁살아",
        -8.5758751679624
      ],
      [
        "양",
        -8.575957616696298
      ],
      [
        "▁대박",
        -8.576460637027754
      ],
      [
        "▁나오",
        -8.576838382783862
      ],
      [
        "매",
        -8.577273685198145
      ],
      [
        "▁치",
        -8.577860536686629
      ],
      [
        "쓰",
        -8.582241094078737
      ],
      [
        "▁있고",
        -8.582382613028592
      ],
      [
        "▁부부",
        -8.588432584598884
      ],
      [
        "▁이쁜",
        -8.58887867484781
      ],
      [
        "▁아님",
        -8.5897385098551
      ],
      [
        "금",
        -8.591789789635646
      ],
      [
        "남자",
        -8.594119348582158
      ],
      [
        "!!!!",
        -8.59436555805842
      ],
      [
        "입",
        -8.595407975431668
      ],
      [
        "했다",
        -8.595757626807542
      ],
      [
        "▁알",
        -8.595785283788016
      ],
      [
        "것도",
        -8.596416947629143
      ],
      [
        "▁이번",
        -8.597275624308741
      ],
      [
        "하니",
        -8.598297444747617
      ],
      [
        "▁굳이",
        -8.599316649990683
      ],
      [
        "ᆻ어",
        -8.599317187344939
      ],
      [
        "가서",
        -8.60239378840366
      ],
      [
        "코",
        -8.602719927175372
      ],
      [
        "▁세상",
        -8.603982586980088
      ],
      [
        "▁아니면",
        -8.60413404788372
      ],
      [
        "희",
        -8.604665149166513
      ],
      [
        "▁사는",
        -8.604894198920995
      ],
      [
        "루",
        -8.60624922671495
      ],
      [
        "▁해도",
        -8.606640819573313
      ],
      [
        "겨",
        -8.60710439856712
      ],
      [
        "▁이해가",
        -8.60966507655774
      ],
      [
        "본",
        -8.609965924363122
      ],
      [
        "3",
        -8.617826319924292
      ],
      [
        "ᆫ다고",
        -8.617916704695297
      ],
      [
        "▁평생",
        -8.620602689474065
      ],
      [
        "날",
        -8.623850848771495
      ],
      [
        "▁임신",
        -8.624539205407798
      ],
      [
        "▁시청률",
        -8.624540883158732
      ],
      [
        "준",
        -8.625155144242822
      ],
      [
        "▁집",
        -8.62582358607676
      ],
      [
        "▁하는거",
        -8.625848260591306
      ],
      [
        "망",
        -8.626937783141779
      ],
      [
        "▁구혜선",
        -8.627204848475861
      ],
      [
        "▁나와",
        -8.627756831071409
      ],
      [
        "바",
        -8.627802273473693
      ],
      [
        "끼",
        -8.628611711078578
      ],
      [
        "판",
        -8.629298026487657
      ],
      [
        "▁나오는",
        -8.630659434278398
      ],
      [
        "▁이상",
        -8.631160031037462
      ],
      [
        "구나",
        -8.631633440505139
      ],
      [
        "지?",
        -8.633166514080964
      ],
      [
        "▁조용히",
        -8.633694829819397
      ],
      [
        "죠",
        -8.634413632449863
      ],
      [
        "▁문재인",
        -8.634548566746387
      ],
      [
        "임.",
        -8.635710617138953
      ],
      [
        "ᄏᄏᄏᄏᄏ",
        -8.636906810945087
      ],
      [
        "▁하는데",
        -8.63837986000613
      ],
      [
        "▁~",
        -8.63979224171899
      ],
      [
        "ᆫ다.",
        -8.642248739042449
      ],
      [
        ";",
        -8.642286123491708
      ],
      [
        "▁머",
        -8.642321903845124
      ],
      [
        "야지",
        -8.644030393105812
      ],
      [
        "-",
        -8.644045227047906
      ],
      [
        "표현을",
        -8.644818606070332
      ],
      [
        "▁선",
        -8.645475918230506
      ],
      [
        "현",
        -8.646864836518136
      ],
      [
        "▁얘",
        -8.646871811432433
      ],
      [
        "계",
        -8.64841560631812
      ],
      [
        "할때",
        -8.648637611192436
      ],
      [
        "▁명복을",
        -8.648864710812417
      ],
      [
        "하기",
        -8.649933535001454
      ],
      [
        "석",
        -8.650795394070427
      ],
      [
        "▁그걸",
        -8.650850747333864
      ],
      [
        "ᆢ",
        -8.651988119595606
      ],
      [
        "워",
        -8.652440954892754
      ],
      [
        "▁가장",
        -8.65410487047758
      ],
      [
        "각",
        -8.655050399364825
      ],
      [
        "▁3",
        -8.65538397379678
      ],
      [
        "▁소속사",
        -8.656621408845162
      ],
      [
        "▁장",
        -8.656869183224336
      ],
      [
        "이냐",
        -8.657303941560551
      ],
      [
        "하자",
        -8.65892968409632
      ],
      [
        "소리",
        -8.663034337126048
      ],
      [
        "▁'",
        -8.66326113315547
      ],
      [
        "▁팬",
        -8.663459549267106
      ],
      [
        "▁나와서",
        -8.664333965819935
      ],
      [
        "너",
        -8.665516571581973
      ],
      [
        "▁본인이",
        -8.66699884776463
      ],
      [
        "▁가지고",
        -8.667334665442471
      ],
      [
        "▁했는데",
        -8.668320892423598
      ],
      [
        "라면",
        -8.671424032852107
      ],
      [
        "▁수준",
        -8.67215993163998
      ],
      [
        "▁연",
        -8.672324227296132
      ],
      [
        "▁갑자기",
        -8.67282947512715
      ],
      [
        "▁간",
        -8.672965765829176
      ],
      [
        "▁좋아하는",
        -8.674651129233881
      ],
      [
        "불",
        -8.676844393774134
      ],
      [
        "ᆯ수",
        -8.679145907296597
      ],
      [
        "▁그러",
        -8.680475726108424
      ],
      [
        "▁해서",
        -8.68379595985938
      ],
      [
        "▁인성",
        -8.683923990316385
      ],
      [
        "▁후",
        -8.68837836712011
      ],
      [
        "▁생각이",
        -8.689191199927633
      ],
      [
        "복",
        -8.691430527978671
      ],
      [
        "▁언플",
        -8.691563559884314
      ],
      [
        "▁있어",
        -8.691639455008952
      ],
      [
        "인가?",
        -8.691683085560756
      ],
      [
        "▁재미",
        -8.691695132530812
      ],
      [
        "▁행동",
        -8.692472703105945
      ],
      [
        "겠지",
        -8.692719607945731
      ],
      [
        "ᆻ어요",
        -8.692827972292578
      ],
      [
        "요?",
        -8.69390875796307
      ],
      [
        "들도",
        -8.694695709214136
      ],
      [
        "▁없이",
        -8.69524868494885
      ],
      [
        "만큼",
        -8.695591031179294
      ],
      [
        "▁늘",
        -8.697772151943013
      ],
      [
        "한다고",
        -8.697880204402434
      ],
      [
        "▁연예인들",
        -8.698158857204985
      ],
      [
        "예",
        -8.698335639935403
      ],
      [
        "▁먼저",
        -8.6987911169304
      ],
      [
        "난",
        -8.701191701918866
      ],
      [
        "▁대한민국",
        -8.702047172205484
      ],
      [
        "▁ᄏᄏᄏᄏᄏᄏ",
        -8.702644385879509
      ],
      [
        "가지고",
        -8.703083518343231
      ],
      [
        "ᆫ게",
        -8.705437661834264
      ],
      [
        "ᄏᄏᄏᄏᄏᄏᄏᄏᄏᄏᄏᄏᄏᄏᄏᄏ",
        -8.706992545334472
      ],
      [
        "▁동",
        -8.707246957763138
      ],
      [
        "창",
        -8.710433165490416
      ],
      [
        "봐라",
        -8.711509410791406
      ],
      [
        "▁인간",
        -8.712332750476026
      ],
      [
        "▁무조건",
        -8.712493612430178
      ],
      [
        "▁조작",
        -8.713910229352322
      ],
      [
        "▁불",
        -8.7155831287101
      ],
      [
        ",,",
        -8.715711085627806
      ],
      [
        "▁오래",
        -8.717962474447939
      ],
      [
        "▁시작",
        -8.718081207523003
      ],
      [
        "하세요",
        -8.71810929044407
      ],
      [
        "역",
        -8.71848091680582
      ],
      [
        "이니",
        -8.720429340034459
      ],
      [
        "▁보니",
        -8.721322712899818
      ],
      [
        "▁설리",
        -8.721852481644271
      ],
      [
        "▁양",
        -8.721965391645568
      ],
      [
        "네요.",
        -8.721994858506369
      ],
      [
        "인거",
        -8.723301406875473
      ],
      [
        "아니",
        -8.72384703145391
      ],
      [
        "▁\"",
        -8.725925385438035
      ],
      [
        "▁안재현",
        -8.726596000098283
      ],
      [
        "작",
        -8.727905463888376
      ],
      [
        "초",
        -8.728032921593831
      ],
      [
        "강",
        -8.728241270158975
      ],
      [
        "크",
        -8.72835496065456
      ],
      [
        "키",
        -8.72924331096576
      ],
      [
        "▁도대체",
        -8.729295472026784
      ],
      [
        "▁볼",
        -8.730076269171423
      ],
      [
        "▁파",
        -8.732566267510737
      ],
      [
        "▁보내",
        -8.732736312274087
      ],
      [
        "사람이",
        -8.734579284111392
      ],
      [
        "티",
        -8.73579736882245
      ],
      [
        "▁젤",
        -8.73714417509235
      ],
      [
        "▁나중에",
        -8.738764261392843
      ],
      [
        "들아",
        -8.739007128093528
      ],
      [
        "▁행복하게",
        -8.739232594951055
      ],
      [
        "▁둘",
        -8.740422668310885
      ],
      [
        "씨가",
        -8.741785910238834
      ],
      [
        "▁언론",
        -8.743467467584509
      ],
      [
        "▁자살",
        -8.74369461445087
      ],
      [
        "사진",
        -8.744513995724756
      ],
      [
        "▁멋진",
        -8.744814453087463
      ],
      [
        "속",
        -8.745294157890969
      ],
      [
        "▁추",
        -8.746285974730174
      ],
      [
        "▁사과",
        -8.7467770224104
      ],
      [
        "▁없는데",
        -8.747006656225818
      ],
      [
        "쇼",
        -8.747503919770145
      ],
      [
        "▁모르는",
        -8.747988919833412
      ],
      [
        "공",
        -8.749366707225265
      ],
      [
        "▁먹고",
        -8.750087601680445
      ],
      [
        "잖아",
        -8.753707035651999
      ],
      [
        "돈",
        -8.754048041240857
      ],
      [
        "▁나가",
        -8.754232239577139
      ],
      [
        "▁전혀",
        -8.755512796902783
      ],
      [
        "▁마음",
        -8.756347364040339
      ],
      [
        "▁그때",
        -8.756521971355093
      ],
      [
        "관",
        -8.75767460165249
      ],
      [
        "▁듯",
        -8.75839626303059
      ],
      [
        "▁니가",
        -8.758816700927323
      ],
      [
        "인듯",
        -8.759955515224028
      ],
      [
        "▁봤는데",
        -8.761822325365738
      ],
      [
        "▁맨날",
        -8.761832746959817
      ],
      [
        "뭐",
        -8.765611653939844
      ],
      [
        "▁노잼",
        -8.76578274438038
      ],
      [
        "▁거의",
        -8.7683787133388
      ],
      [
        "▁대한",
        -8.770840041639973
      ],
      [
        "프",
        -8.771173157457705
      ],
      [
        "▁여자는",
        -8.771906366431338
      ],
      [
        "애들",
        -8.772166997656711
      ],
      [
        "▁진",
        -8.77302206349398
      ],
      [
        "주고",
        -8.774350891685435
      ],
      [
        "▁돈이",
        -8.776025493918187
      ],
      [
        "연기",
        -8.776413045686036
      ],
      [
        "▁시간",
        -8.776986529440311
      ],
      [
        "▁들어",
        -8.77820100978624
      ],
      [
        ":",
        -8.782468709604927
      ],
      [
        "또",
        -8.783083181932218
      ],
      [
        "이라는",
        -8.784931215593243
      ],
      [
        "▁언니",
        -8.78518508595557
      ],
      [
        "▁어린",
        -8.786975570838065
      ],
      [
        "▁있다",
        -8.789042500200999
      ],
      [
        "▁봐도",
        -8.789203270061984
      ],
      [
        "▁새",
        -8.789556669994184
      ],
      [
        "ᆯ까",
        -8.789589979207216
      ],
      [
        "▁전현무",
        -8.79205729818405
      ],
      [
        "▁약",
        -8.792491706587175
      ],
      [
        "▁힘내세요",
        -8.79314476993706
      ],
      [
        "했으면",
        -8.794209718126451
      ],
      [
        "▁송혜교",
        -8.795172583547446
      ],
      [
        "체",
        -8.797394900139432
      ],
      [
        "▁친",
        -8.797425803526783
      ],
      [
        "~~~~",
        -8.800011561636342
      ],
      [
        "▁술",
        -8.800247954375521
      ],
      [
        "▁걸",
        -8.80110754797924
      ],
      [
        "▁언제",
        -8.802104775431271
      ],
      [
        "▁1위",
        -8.802143972877426
      ],
      [
        "▁정도",
        -8.807053594549435
      ],
      [
        "ᆻ으니",
        -8.81107806665413
      ],
      [
        "▁이해",
        -8.81128958696242
      ],
      [
        "▁되는",
        -8.811837810503595
      ],
      [
        "▁예",
        -8.8126439044914
      ],
      [
        "는것도",
        -8.813853841860569
      ],
      [
        "▁하차",
        -8.813915033802935
      ],
      [
        "행",
        -8.816240358770433
      ],
      [
        "▁코",
        -8.816857802217964
      ],
      [
        "없다",
        -8.817220969437955
      ],
      [
        "▁남의",
        -8.817280730627452
      ],
      [
        "▁있지",
        -8.817284503510216
      ],
      [
        "▁속",
        -8.820236768520115
      ],
      [
        "▁처",
        -8.820704413268595
      ],
      [
        "절",
        -8.822647041689587
      ],
      [
        "▁사람들은",
        -8.823443952879996
      ],
      [
        "▁조사",
        -8.824049401281961
      ],
      [
        "▁대체",
        -8.824592080324251
      ],
      [
        "▁방탄",
        -8.825866291887744
      ],
      [
        "▁좋다",
        -8.82671758676106
      ],
      [
        "▁해라",
        -8.827060629335518
      ],
      [
        "승",
        -8.828514709097576
      ],
      [
        "결혼",
        -8.82907194380336
      ],
      [
        "▁똥",
        -8.829898980157639
      ],
      [
        "▁하지만",
        -8.830043684227737
      ],
      [
        "엔",
        -8.830284942448094
      ],
      [
        "에도",
        -8.8315069074262
      ],
      [
        "▁전라도",
        -8.831986035289
      ],
      [
        "▁한혜진",
        -8.836406057471521
      ],
      [
        "▁울",
        -8.836830161298197
      ],
      [
        "▁비호감",
        -8.836930837590039
      ],
      [
        "▁이유가",
        -8.837736279722888
      ],
      [
        "다고",
        -8.83858819195258
      ],
      [
        "▁몸",
        -8.839027998702914
      ],
      [
        "▁될",
        -8.839950836395749
      ],
      [
        "처",
        -8.840771163222689
      ],
      [
        "▁정신",
        -8.84133742305449
      ],
      [
        "▁많아",
        -8.841466418934951
      ],
      [
        "▁공",
        -8.841686195979442
      ],
      [
        "포",
        -8.842064338976332
      ],
      [
        "▁마음이",
        -8.84347842108604
      ],
      [
        "▁방송에서",
        -8.843837740675134
      ],
      [
        "▁병",
        -8.84446977044262
      ],
      [
        "해요",
        -8.846787856104203
      ],
      [
        "▁수지",
        -8.848430179247618
      ],
      [
        "▁오히려",
        -8.849160072592682
      ],
      [
        "▁4",
        -8.8492008266974
      ],
      [
        "버",
        -8.849644615642953
      ],
      [
        "▁나오면",
        -8.849885505593747
      ],
      [
        "▁여성",
        -8.850257599469169
      ],
      [
        "▁OOO",
        -8.850877369786406
      ],
      [
        "▁이름",
        -8.851276029376256
      ],
      [
        "▁^^",
        -8.851965390364715
      ],
      [
        "▁물",
        -8.85208629565151
      ],
      [
        "▁인",
        -8.852455952228015
      ],
      [
        "터",
        -8.85314692266497
      ],
      [
        "합니다",
        -8.85390419435128
      ],
      [
        "하냐",
        -8.85499868421469
      ],
      [
        "권",
        -8.857671028067335
      ],
      [
        "▁하면서",
        -8.858022791155571
      ],
      [
        "들을",
        -8.859891173490295
      ],
      [
        "▁지가",
        -8.86030903866468
      ],
      [
        "언니",
        -8.860971335483777
      ],
      [
        "달",
        -8.861965985427034
      ],
      [
        "놈",
        -8.862230895085753
      ],
      [
        "▁범죄",
        -8.862607122545853
      ],
      [
        "▁성공",
        -8.863546740820954
      ],
      [
        "▁일반인",
        -8.86370699875904
      ],
      [
        "▁기부",
        -8.867170619411382
      ],
      [
        "▁유재석",
        -8.86868435814641
      ],
      [
        "새",
        -8.869508077901544
      ],
      [
        "▁않고",
        -8.871825125088325
      ],
      [
        "약",
        -8.87239068655701
      ],
      [
        "▁어차피",
        -8.874452388630276
      ],
      [
        "즈",
        -8.874584569789384
      ],
      [
        "ᆫ건",
        -8.874672654977553
      ],
      [
        "점",
        -8.874846745545105
      ],
      [
        "색",
        -8.876637420639142
      ],
      [
        "니깐",
        -8.878762816122336
      ],
      [
        "했던",
        -8.879761236682052
      ],
      [
        ";;;",
        -8.880087251621172
      ],
      [
        "▁매력",
        -8.880607880637527
      ],
      [
        "력",
        -8.881258721138657
      ],
      [
        "많이",
        -8.881316539863743
      ],
      [
        "▁싫어",
        -8.881699381055668
      ],
      [
        "▁자식",
        -8.88180963641036
      ],
      [
        "▁30대",
        -8.881837152567226
      ],
      [
        "▁그거",
        -8.882002722352947
      ],
      [
        "ᆞ",
        -8.882150030482068
      ],
      [
        "▁대상",
        -8.883012778689364
      ],
      [
        "천",
        -8.883080864190491
      ],
      [
        "척",
        -8.883369933720108
      ],
      [
        "▁훨씬",
        -8.883651499168801
      ],
      [
        "▁나온",
        -8.884174266479931
      ],
      [
        "▁받아",
        -8.88595957326052
      ],
      [
        "▁문",
        -8.886075127217547
      ],
      [
        "▁박나래",
        -8.886213366796984
      ],
      [
        "▁써",
        -8.886358003742242
      ],
      [
        "증",
        -8.886892004732438
      ],
      [
        "꺼",
        -8.888670735812271
      ],
      [
        "▁같다",
        -8.889459463258138
      ],
      [
        "▁공개",
        -8.89023922804852
      ],
      [
        "김",
        -8.890270714436296
      ],
      [
        "욕",
        -8.892072997914985
      ],
      [
        "▁작가",
        -8.892828007157009
      ],
      [
        "나?",
        -8.893970982510476
      ],
      [
        "▁작품",
        -8.89498047317887
      ],
      [
        "사랑",
        -8.897644522490202
      ],
      [
        "▁밥",
        -8.897657835591898
      ],
      [
        "운",
        -8.899416240385206
      ],
      [
        "추",
        -8.899921665449694
      ],
      [
        "죄",
        -8.901632994388061
      ],
      [
        "▁데뷔",
        -8.901766021383134
      ],
      [
        "▁등",
        -8.902424250124435
      ],
      [
        "네..",
        -8.90283239565103
      ],
      [
        "해야지",
        -8.90366476727552
      ],
      [
        "▁나쁜",
        -8.905703210132472
      ],
      [
        "없어",
        -8.911743206052247
      ],
      [
        "그냥",
        -8.91307541094278
      ],
      [
        "▁걱정",
        -8.913737869889317
      ],
      [
        "▁이쁘다",
        -8.917378801772509
      ],
      [
        "▁ᅳ",
        -8.920288608545608
      ],
      [
        "▁이야기",
        -8.922015429752134
      ],
      [
        "교",
        -8.922897578636361
      ],
      [
        "말고",
        -8.923672682941088
      ],
      [
        "▁일이",
        -8.92367745700573
      ],
      [
        "구만",
        -8.925498244934406
      ],
      [
        "▁고인의",
        -8.926072620498513
      ],
      [
        "기도",
        -8.926138599674083
      ],
      [
        "따",
        -8.926816499035446
      ],
      [
        "퍼",
        -8.927700873195281
      ],
      [
        "겠네",
        -8.928082337754423
      ],
      [
        "엄마",
        -8.928515193684303
      ],
      [
        "▁연예인이",
        -8.929118088061959
      ],
      [
        "먹고",
        -8.930094040126091
      ],
      [
        "▁외모",
        -8.930935900063666
      ],
      [
        "▁아무",
        -8.931438721659145
      ],
      [
        "▁백종원",
        -8.93159464161772
      ],
      [
        "▁미국",
        -8.931942918338041
      ],
      [
        "▁발",
        -8.93208820139031
      ],
      [
        "▁죄",
        -8.932816908395246
      ],
      [
        "▁한다",
        -8.933398709799404
      ],
      [
        ",,,",
        -8.933476823185634
      ],
      [
        "▁니들이",
        -8.933935873769062
      ],
      [
        "▁끝까지",
        -8.934067530936264
      ],
      [
        "▁일단",
        -8.934279328557324
      ],
      [
        "▁떠",
        -8.934421655942437
      ],
      [
        "▁차라리",
        -8.934927088132286
      ],
      [
        "▁관리",
        -8.935332873312099
      ],
      [
        "번",
        -8.93537375275346
      ],
      [
        "▁전부",
        -8.935531669070668
      ],
      [
        "▁커플",
        -8.935637937559607
      ],
      [
        "▁기대",
        -8.936378374318016
      ],
      [
        "이란",
        -8.93753985624153
      ],
      [
        "▁형",
        -8.9377756421667
      ],
      [
        "시고",
        -8.937877927594322
      ],
      [
        "▁점점",
        -8.938364493214886
      ],
      [
        "▁난리",
        -8.939313475591923
      ],
      [
        "▁아줌마",
        -8.942626703037353
      ],
      [
        "지..",
        -8.943608125870458
      ],
      [
        "ᆺ다",
        -8.943688294429151
      ],
      [
        "▁출연",
        -8.943949904099128
      ],
      [
        "좋아",
        -8.9443092414246
      ],
      [
        "근",
        -8.945611588158224
      ],
      [
        "되는",
        -8.945767499277448
      ],
      [
        "했다고",
        -8.946340184846038
      ],
      [
        "▁회사",
        -8.948802474212856
      ],
      [
        "▁몇",
        -8.950790586116161
      ],
      [
        "▁아니라고",
        -8.951411295622806
      ],
      [
        "▁올리",
        -8.951665067834657
      ],
      [
        "▁겁나",
        -8.952171391830703
      ],
      [
        "▁끝나",
        -8.95225407439202
      ],
      [
        "레",
        -8.952351094513679
      ],
      [
        "▁같아",
        -8.953919265412337
      ],
      [
        "담",
        -8.956877799337487
      ],
      [
        "ᆻ지만",
        -8.957203312381388
      ],
      [
        "▁매",
        -8.957579742178394
      ],
      [
        "되고",
        -8.959995505079613
      ],
      [
        "▁아니다",
        -8.96045833827701
      ],
      [
        "▁보이",
        -8.960740964868787
      ],
      [
        "▁고생",
        -8.96166996176283
      ],
      [
        "▁크",
        -8.962793731159607
      ],
      [
        "▁물론",
        -8.963676307464755
      ],
      [
        "▁노력",
        -8.96406580926789
      ],
      [
        "허",
        -8.964074220756737
      ],
      [
        "▁보면서",
        -8.964211327426487
      ],
      [
        "▁마지막",
        -8.965089826024268
      ],
      [
        "▁않은",
        -8.96668998449822
      ],
      [
        "백",
        -8.966993872951102
      ],
      [
        "사람들",
        -8.968018684833456
      ],
      [
        "ᆻ다.",
        -8.9683831846732
      ],
      [
        "지마라",
        -8.96884672121461
      ],
      [
        "▁아이유",
        -8.969726881151141
      ],
      [
        "▁벌",
        -8.970780771080836
      ],
      [
        "▁아버지",
        -8.97092563536632
      ],
      [
        "시길",
        -8.971653063136465
      ],
      [
        "▁두분",
        -8.972396272944044
      ],
      [
        "▁단",
        -8.973040218461998
      ],
      [
        "▁허",
        -8.975944194530161
      ],
      [
        "노래",
        -8.976494384740004
      ],
      [
        "▁연예계",
        -8.976583296514368
      ],
      [
        "▁필요",
        -8.977119260656755
      ],
      [
        "팬",
        -8.977517626549247
      ],
      [
        "▁성격",
        -8.977978361719115
      ],
      [
        "커플",
        -8.978377757310842
      ],
      [
        "▁자기가",
        -8.979430529553902
      ],
      [
        "▁이쁘고",
        -8.979515829489072
      ],
      [
        "▁송중기",
        -8.980194548052554
      ],
      [
        "울",
        -8.980580423565838
      ],
      [
        "토",
        -8.980731164402386
      ],
      [
        "▁함께",
        -8.98097518038429
      ],
      [
        "정도",
        -8.983127626294264
      ],
      [
        "▁팬들",
        -8.983290875012157
      ],
      [
        "▁이상한",
        -8.983475738287154
      ],
      [
        "▁적",
        -8.984718454070176
      ],
      [
        "▁있으면",
        -8.986027199552971
      ],
      [
        "ᆯ거",
        -8.987123541304106
      ],
      [
        "했음",
        -8.988018417178525
      ],
      [
        "▁백",
        -8.988219778712844
      ],
      [
        "▁여기서",
        -8.988576726512996
      ],
      [
        "▁아닌가?",
        -8.988603888332557
      ],
      [
        "▁네이버",
        -8.988775215305905
      ],
      [
        "들의",
        -8.989059725366001
      ],
      [
        "치고",
        -8.989667539600548
      ],
      [
        "▁좋아요",
        -8.990970830843457
      ],
      [
        "▁해야",
        -8.991842250213848
      ],
      [
        "▁존나",
        -8.991847940314257
      ],
      [
        "이상",
        -8.992552796877854
      ],
      [
        "없고",
        -8.993102270562215
      ],
      [
        "▁남자는",
        -8.993759409866529
      ],
      [
        "딸",
        -8.99662507897213
      ],
      [
        "영화",
        -8.99730331664254
      ],
      [
        "악",
        -8.997411666525945
      ],
      [
        "요~",
        -8.997563883820009
      ],
      [
        "주세요",
        -9.000237336736488
      ],
      [
        "▁안되",
        -9.000447576588904
      ],
      [
        "얼굴",
        -9.000479424573621
      ],
      [
        "▁거짓말",
        -9.001215619090782
      ],
      [
        "▁남편이",
        -9.001690442221314
      ],
      [
        "▁애기",
        -9.00174144080354
      ],
      [
        "▁만들어",
        -9.002107705306127
      ],
      [
        "▁그동안",
        -9.00235425451453
      ],
      [
        "▁특히",
        -9.002459624690031
      ],
      [
        "/",
        -9.002489013819089
      ],
      [
        "▁안하고",
        -9.002897694454537
      ],
      [
        "▁따라",
        -9.003607725750062
      ],
      [
        "▁아는",
        -9.003873379620156
      ],
      [
        "▁알아",
        -9.005615604477589
      ],
      [
        "▁구하라",
        -9.007478880863385
      ],
      [
        "라.",
        -9.008996962161532
      ],
      [
        "▁좋은데",
        -9.010770369516528
      ],
      [
        "▁정준영",
        -9.011429226524072
      ],
      [
        "기를",
        -9.012208294261493
      ],
      [
        "하는건",
        -9.01221902064874
      ],
      [
        "좋은",
        -9.013539775973175
      ],
      [
        "▁헐",
        -9.013619566519935
      ],
      [
        "받고",
        -9.015246206148728
      ],
      [
        "▁열",
        -9.015361709050742
      ],
      [
        "▁기레기",
        -9.01558814769391
      ],
      [
        "▁심",
        -9.017836190739548
      ],
      [
        "는것",
        -9.018044323028564
      ],
      [
        "▁응원",
        -9.018932921579957
      ],
      [
        "범",
        -9.018968068663096
      ],
      [
        "카",
        -9.01923482576642
      ],
      [
        "▁암",
        -9.020498885654
      ],
      [
        "▁들어가",
        -9.02166940936046
      ],
      [
        "▁건강",
        -9.02175021676674
      ],
      [
        "라서",
        -9.021995892835728
      ],
      [
        "▁초",
        -9.02209224446977
      ],
      [
        "▁애들이",
        -9.024344352147658
      ],
      [
        "▁예전에",
        -9.02457351920954
      ],
      [
        "▁가서",
        -9.025269922910049
      ],
      [
        "▁자주",
        -9.025978612141374
      ],
      [
        "보는",
        -9.026731678020605
      ],
      [
        "▁편",
        -9.027438157133512
      ],
      [
        "▁꼴",
        -9.02771635161195
      ],
      [
        "으",
        -9.028495287726068
      ],
      [
        "▁캐릭터",
        -9.028686570996776
      ],
      [
        "거리",
        -9.029140655049998
      ],
      [
        "씨는",
        -9.029179055856888
      ],
      [
        "▁응",
        -9.030573781392256
      ],
      [
        "▁벌써",
        -9.031211582784168
      ],
      [
        "▁어느",
        -9.031721795979404
      ],
      [
        "설",
        -9.032687556941182
      ],
      [
        "댓글",
        -9.033932905038048
      ],
      [
        "머",
        -9.034162278604004
      ],
      [
        "▁표현",
        -9.034485215109436
      ],
      [
        "▁넌",
        -9.035101627651365
      ],
      [
        "▁보다",
        -9.035449073895595
      ],
      [
        "▁무도",
        -9.035965488918205
      ],
      [
        "▁미친",
        -9.036581845220995
      ],
      [
        "ᄍᄍ",
        -9.036774392445484
      ],
      [
        "▁미투",
        -9.0374343906151
      ],
      [
        "▁당연히",
        -9.037974138581426
      ],
      [
        "얘기",
        -9.038896775881058
      ],
      [
        "▁구속",
        -9.039573300246836
      ],
      [
        "▁싶다",
        -9.040176402649957
      ],
      [
        "▁뜨",
        -9.040803839934323
      ],
      [
        "연예인",
        -9.04106102598969
      ],
      [
        "~~^^",
        -9.041322980599425
      ],
      [
        "막",
        -9.041573209286817
      ],
      [
        "충",
        -9.042754491444272
      ],
      [
        "▁봐",
        -9.04349856816012
      ],
      [
        "▁영상",
        -9.04532371717617
      ],
      [
        "▁음악",
        -9.047394299830056
      ],
      [
        "ᆫ지",
        -9.047849633642482
      ],
      [
        "▁남자들",
        -9.048517952958884
      ],
      [
        "▁위",
        -9.048865055641894
      ],
      [
        "▁조금",
        -9.048906576984203
      ],
      [
        "▁문제가",
        -9.049416691021396
      ],
      [
        "나오",
        -9.049851536340809
      ],
      [
        "▁위해",
        -9.051407477461032
      ],
      [
        "▁날",
        -9.052098549134204
      ],
      [
        "▁많은데",
        -9.052253206843236
      ],
      [
        "싸",
        -9.052960174971677
      ],
      [
        "부부",
        -9.053298235228263
      ],
      [
        "▁광고",
        -9.056078018097631
      ],
      [
        "▁생",
        -9.056108719128948
      ],
      [
        "한게",
        -9.05629286714789
      ],
      [
        "ᆫ듯",
        -9.05632997661763
      ],
      [
        "▁관종",
        -9.056894392974746
      ],
      [
        "▁누군지",
        -9.05706572815418
      ],
      [
        "한데",
        -9.05886417196018
      ],
      [
        "▁사회",
        -9.059247981831437
      ],
      [
        "▁아닌가",
        -9.059305010726996
      ],
      [
        "▁운동",
        -9.059503884319936
      ],
      [
        "▁젊은",
        -9.059585051936676
      ],
      [
        "더만",
        -9.060486589322933
      ],
      [
        "▁예전",
        -9.061395981044218
      ],
      [
        "사건",
        -9.06328022620009
      ],
      [
        "ᆯ텐데",
        -9.06449966911035
      ],
      [
        "▁다음",
        -9.065159189766252
      ],
      [
        "▁맛",
        -9.065431825630585
      ],
      [
        "▁국민",
        -9.065571676046996
      ],
      [
        "땜에",
        -9.065678812119591
      ],
      [
        "▁밖에",
        -9.067262075120436
      ],
      [
        "▁홍보",
        -9.0676319777156
      ],
      [
        "겠지만",
        -9.06771578867344
      ],
      [
        "▁대중",
        -9.067843975006292
      ],
      [
        "알",
        -9.067878115850286
      ],
      [
        "것들",
        -9.068422683746608
      ],
      [
        "▁끝",
        -9.068938219944483
      ],
      [
        "▁않",
        -9.06952545270201
      ],
      [
        "▁5",
        -9.070649149744012
      ],
      [
        "친",
        -9.070834186512442
      ],
      [
        "ᆻ는지",
        -9.07126983846639
      ],
      [
        "▁행복하세요",
        -9.071391264089796
      ],
      [
        "▁최",
        -9.072021631800355
      ],
      [
        "▁페미",
        -9.07202851117171
      ],
      [
        "▁뭐라",
        -9.072626066046698
      ],
      [
        "요..",
        -9.07276354426957
      ],
      [
        "▁맞",
        -9.073613795381323
      ],
      [
        "투",
        -9.074287286180406
      ],
      [
        "▁성폭행",
        -9.074292933708064
      ],
      [
        "▁문화",
        -9.074924854600695
      ],
      [
        "▁받고",
        -9.074953161735545
      ],
      [
        "나라",
        -9.075000127816333
      ],
      [
        "하지만",
        -9.075893112905169
      ],
      [
        "▁방",
        -9.077881452927429
      ],
      [
        "▁괜히",
        -9.081352802521474
      ],
      [
        "▁방탄소년단",
        -9.08157839449288
      ],
      [
        "▁맘",
        -9.081720202414582
      ],
      [
        "▁반성",
        -9.083197079672068
      ],
      [
        "▁믿고",
        -9.08322304791164
      ],
      [
        "▁좋고",
        -9.083327343315934
      ],
      [
        "▁연기도",
        -9.083450082817826
      ],
      [
        "▁티비",
        -9.083748223127202
      ],
      [
        "▁없",
        -9.084416731028467
      ],
      [
        "▁안되는",
        -9.084783022500776
      ],
      [
        "▁인스타",
        -9.085161509247593
      ],
      [
        "어서",
        -9.085903423986908
      ],
      [
        "ᆯ러",
        -9.08699762964038
      ],
      [
        "▁기억",
        -9.087075799218196
      ],
      [
        "보단",
        -9.087161881546868
      ],
      [
        "청",
        -9.087835117767323
      ],
      [
        "직",
        -9.089137444359906
      ],
      [
        "손",
        -9.089929288429095
      ],
      [
        "▁그렇고",
        -9.0899496504858
      ],
      [
        "▁생기",
        -9.091044043916884
      ],
      [
        "▁먹",
        -9.091776777630132
      ],
      [
        "▁음주운전",
        -9.092003186091016
      ],
      [
        "▁길",
        -9.095036192887031
      ],
      [
        "▁공부",
        -9.095512951694902
      ],
      [
        "▁경찰",
        -9.098955302613104
      ],
      [
        "▁자체가",
        -9.099792134140444
      ],
      [
        "▁사고",
        -9.103345061244363
      ],
      [
        "ᆻ",
        -9.104985227261777
      ],
      [
        "▁지들",
        -9.105538556338512
      ],
      [
        "▁팩트",
        -9.106174651730491
      ],
      [
        "4",
        -9.1068936426439
      ],
      [
        "▁재밌게",
        -9.107577082820953
      ],
      [
        "먹",
        -9.107678936615557
      ],
      [
        "ᆻ지",
        -9.10785900095971
      ],
      [
        "▁10",
        -9.10937284523681
      ],
      [
        "써",
        -9.110757794884442
      ],
      [
        "▁욕하는",
        -9.111195364731554
      ],
      [
        "▁탑",
        -9.111296887996064
      ],
      [
        "ᆯ려고",
        -9.11163579710488
      ],
      [
        "지는",
        -9.11171142799678
      ],
      [
        "학",
        -9.111844526892735
      ],
      [
        "들어",
        -9.111961114049404
      ],
      [
        "▁알아서",
        -9.112220976888835
      ],
      [
        "억",
        -9.114139018093768
      ],
      [
        "▁어휴",
        -9.115410122425994
      ],
      [
        "별",
        -9.11677074389018
      ],
      [
        "오빠",
        -9.116825647416778
      ],
      [
        "▁된",
        -9.116868861580278
      ],
      [
        "고,",
        -9.120161278294235
      ],
      [
        "는걸",
        -9.12055923709456
      ],
      [
        "▁이유",
        -9.121146317938292
      ],
      [
        "▁떠나",
        -9.121671193432096
      ],
      [
        "▁그대로",
        -9.121730045921312
      ],
      [
        "▁기분",
        -9.122990719312886
      ],
      [
        "▁경",
        -9.123048163646736
      ],
      [
        "▁다니",
        -9.123847849718294
      ],
      [
        "▁어찌",
        -9.124089870269142
      ],
      [
        "업",
        -9.125617257516414
      ],
      [
        "잘못",
        -9.126617116284956
      ],
      [
        "▁그런데",
        -9.12674032219918
      ],
      [
        "▁목소리",
        -9.126952972684787
      ],
      [
        "커",
        -9.127871190745385
      ],
      [
        "▁스토리",
        -9.12809420140527
      ],
      [
        "꼬",
        -9.12836590315051
      ],
      [
        "▁범죄자",
        -9.128404343742188
      ],
      [
        "메",
        -9.129257497627757
      ],
      [
        "하던",
        -9.129643936753633
      ],
      [
        "▁잡아",
        -9.131147100703588
      ],
      [
        "▁왕",
        -9.131328220024564
      ],
      [
        "▁그룹",
        -9.132292914682166
      ],
      [
        "▁이런거",
        -9.133639012284668
      ],
      [
        "▁모르고",
        -9.133738556691744
      ],
      [
        "▁과거",
        -9.133887446589364
      ],
      [
        "시간",
        -9.134132162236712
      ],
      [
        "니?",
        -9.13427802149812
      ],
      [
        "▁영",
        -9.134841573370704
      ],
      [
        "왕",
        -9.135485754875178
      ],
      [
        "▁부럽다",
        -9.136059796272658
      ],
      [
        "▁동생",
        -9.136223354957338
      ],
      [
        "열",
        -9.136687539623289
      ],
      [
        "모습",
        -9.140056722534071
      ],
      [
        "▁쉽게",
        -9.140729166367883
      ],
      [
        "▁강다니엘",
        -9.143008830744504
      ],
      [
        "순",
        -9.143353936906758
      ],
      [
        "▁정치",
        -9.143828409126408
      ],
      [
        "▁기안",
        -9.144211802692862
      ],
      [
        "주는",
        -9.144239845140428
      ],
      [
        "잡",
        -9.144695459174072
      ],
      [
        "▁촬영",
        -9.145548597764074
      ],
      [
        "함.",
        -9.147495824902023
      ],
      [
        "윤",
        -9.14762565243472
      ],
      [
        "▁전에",
        -9.14788135652702
      ],
      [
        "▁오빠",
        -9.149934848058308
      ],
      [
        "▁이뻐",
        -9.150511040926228
      ],
      [
        "▁달",
        -9.150914143178442
      ],
      [
        "류",
        -9.151156895982988
      ],
      [
        "덕",
        -9.1516378058812
      ],
      [
        "곡",
        -9.1518048771192
      ],
      [
        "▁ᄏᄏᄏᄏᄏᄏᄏ",
        -9.15195216109246
      ],
      [
        "마다",
        -9.15266408126858
      ],
      [
        "▁좋",
        -9.15327208201231
      ],
      [
        "혜",
        -9.153865887854492
      ],
      [
        "▁망",
        -9.154039192502664
      ],
      [
        "지...",
        -9.155781417816316
      ],
      [
        "▁느낌이",
        -9.155803017498016
      ],
      [
        "분들",
        -9.155859190809208
      ],
      [
        "▁힘든",
        -9.156054617999551
      ],
      [
        "▁급",
        -9.156340789495207
      ],
      [
        "▁공감",
        -9.156686161224732
      ],
      [
        "▁짱",
        -9.15672281199527
      ],
      [
        "ᆯ수도",
        -9.156747095366429
      ],
      [
        "ᄏᄏᄏᄏᄏᄏ",
        -9.157089763123736
      ],
      [
        "▁이쁘",
        -9.157346129979196
      ],
      [
        "▁에휴",
        -9.158523824963163
      ],
      [
        "ᆻ냐",
        -9.160587046441178
      ],
      [
        "돼",
        -9.161909466041225
      ],
      [
        "▁없음",
        -9.162854586691084
      ],
      [
        "이지만",
        -9.165243411220342
      ],
      [
        "▁아기",
        -9.165939582540211
      ],
      [
        "문제",
        -9.166307693088042
      ],
      [
        "▁복",
        -9.166572632626156
      ],
      [
        "꼴",
        -9.167488391524737
      ],
      [
        "라니",
        -9.167653634765516
      ],
      [
        "찌",
        -9.168921615286736
      ],
      [
        "▁법",
        -9.16959256770251
      ],
      [
        "▁하는게",
        -9.170152949219666
      ],
      [
        "▁자랑",
        -9.170806064931693
      ],
      [
        "▁적당히",
        -9.171179939289464
      ],
      [
        "▁쉬",
        -9.171866632790913
      ],
      [
        "▁죽",
        -9.171966603023504
      ],
      [
        "▁잘하고",
        -9.17233355652327
      ],
      [
        "인생",
        -9.17240705239748
      ],
      [
        "훈",
        -9.172799924593486
      ],
      [
        "▁충분히",
        -9.17329901302706
      ],
      [
        "채",
        -9.17577984970887
      ],
      [
        "죽",
        -9.177268405346725
      ],
      [
        "▁돼",
        -9.178043440480936
      ],
      [
        "▁20대",
        -9.178347235484482
      ],
      [
        "▁가정",
        -9.178374212117108
      ],
      [
        "결",
        -9.18009309066105
      ],
      [
        "▁되어",
        -9.180463546891366
      ],
      [
        "▁음식",
        -9.182920888446034
      ],
      [
        "▁없다.",
        -9.183437208181989
      ],
      [
        "▁사생활",
        -9.183760302899056
      ],
      [
        "▁현실",
        -9.184144398372824
      ],
      [
        "▁힘들어",
        -9.184722342375064
      ],
      [
        "있어",
        -9.184846673954342
      ],
      [
        "이냐?",
        -9.185508649641353
      ],
      [
        "▁스",
        -9.185731307287424
      ],
      [
        "줘",
        -9.186131864166658
      ],
      [
        "=",
        -9.186159655712196
      ],
      [
        "▁안돼",
        -9.186386455062596
      ],
      [
        "있고",
        -9.186541734447475
      ],
      [
        "▁엄마가",
        -9.188701065187391
      ],
      [
        "▁내용",
        -9.188916438515305
      ],
      [
        "그리고",
        -9.189823334234395
      ],
      [
        "▁종",
        -9.189934296906165
      ],
      [
        "있는데",
        -9.19088565116693
      ],
      [
        "▁북한",
        -9.19150658819832
      ],
      [
        "▁여자들이",
        -9.19151115894163
      ],
      [
        "규",
        -9.191639337857502
      ],
      [
        "되면",
        -9.192480582858368
      ],
      [
        "▁부모가",
        -9.19326919648972
      ],
      [
        "▁얘는",
        -9.193390118572324
      ],
      [
        "빨",
        -9.193501092590989
      ],
      [
        "▁배우들",
        -9.193976678011136
      ],
      [
        "하니까",
        -9.19444887199056
      ],
      [
        "▁대단한",
        -9.194844354663935
      ],
      [
        "씩",
        -9.195196530425804
      ],
      [
        "▁사귀",
        -9.195292088599128
      ],
      [
        "▁폐지",
        -9.195589733622596
      ],
      [
        "는듯",
        -9.19787044013277
      ],
      [
        "한번",
        -9.198232775741538
      ],
      [
        "▁없어서",
        -9.19984808134146
      ],
      [
        "정말",
        -9.200736941730478
      ],
      [
        "▁멤버",
        -9.20131311000079
      ],
      [
        "하시길",
        -9.203557385004377
      ],
      [
        "▁선택",
        -9.203950264744115
      ],
      [
        "▁몸매",
        -9.205273506278528
      ],
      [
        "네...",
        -9.205965761198549
      ],
      [
        "극",
        -9.205986298283538
      ],
      [
        "▁호",
        -9.206237601707633
      ],
      [
        "▁번",
        -9.206467845297537
      ],
      [
        "▁보여주",
        -9.20728164417844
      ],
      [
        "이든",
        -9.20756755536726
      ],
      [
        "그러",
        -9.208337160032018
      ],
      [
        "▁무대",
        -9.209401980707764
      ],
      [
        "락",
        -9.209958534233175
      ],
      [
        "하지말고",
        -9.210019564622495
      ],
      [
        "▁눈물",
        -9.212999342976149
      ],
      [
        "▁말을",
        -9.213105314491768
      ],
      [
        "▁복귀",
        -9.213384987889176
      ],
      [
        "▁말도",
        -9.213468830599568
      ],
      [
        "▁함",
        -9.213532398357184
      ],
      [
        "▁감",
        -9.213931739263607
      ],
      [
        "▁키우",
        -9.2140570496159
      ],
      [
        "▁성추행",
        -9.21492376778527
      ],
      [
        "▁있어서",
        -9.214971189616048
      ],
      [
        "▁키",
        -9.217328439632698
      ],
      [
        "▁사람을",
        -9.217826925370838
      ],
      [
        "ᄌ",
        -9.21855188564616
      ],
      [
        "????",
        -9.218877305766949
      ],
      [
        "▁하나도",
        -9.219139006083582
      ],
      [
        "찬",
        -9.219367957398164
      ],
      [
        "임?",
        -9.219956531730196
      ],
      [
        "▁박보검",
        -9.220287681558403
      ],
      [
        "▁옷",
        -9.2204457132373
      ],
      [
        "혀",
        -9.220603847019383
      ],
      [
        "머리",
        -9.220656238913984
      ],
      [
        "▁현빈",
        -9.220854807115035
      ],
      [
        "▁능력",
        -9.22238896899128
      ],
      [
        "▁독",
        -9.223341290186802
      ],
      [
        "▁논란",
        -9.223494877276048
      ],
      [
        "▁없네",
        -9.223587249359284
      ],
      [
        "▁윤",
        -9.224177674473394
      ],
      [
        "▁모습이",
        -9.225975362977316
      ],
      [
        "▁똑같은",
        -9.226459577211314
      ],
      [
        "▁스스로",
        -9.228482755229129
      ],
      [
        "▁그런거",
        -9.229291372984388
      ],
      [
        "▁있는거",
        -9.230238353010703
      ],
      [
        "끼리",
        -9.23035015331558
      ],
      [
        "▁외",
        -9.230454807390212
      ],
      [
        "▁태",
        -9.23078893910897
      ],
      [
        "▁많",
        -9.231421043840824
      ],
      [
        "▁개인",
        -9.233766524978062
      ],
      [
        "으면",
        -9.234226026558064
      ],
      [
        "▁처벌",
        -9.234432883477163
      ],
      [
        "▁뉴스",
        -9.23493713347884
      ],
      [
        "▁되지",
        -9.234961390883964
      ],
      [
        "▁저게",
        -9.23552561604176
      ],
      [
        "했네",
        -9.236580490751065
      ],
      [
        "변",
        -9.238806165100543
      ],
      [
        "▁보통",
        -9.23892984529396
      ],
      [
        "▁ᆢ",
        -9.23916862496194
      ],
      [
        "하길",
        -9.239624624706543
      ],
      [
        "▁않는",
        -9.23963267056038
      ],
      [
        "ᆫ것도",
        -9.23969041304708
      ],
      [
        "▁마닷",
        -9.239974238809245
      ],
      [
        "자나",
        -9.242457066337058
      ],
      [
        "▁제목",
        -9.243081993728133
      ],
      [
        "......",
        -9.24326867001958
      ],
      [
        "▁같다.",
        -9.243392302036067
      ],
      [
        "▁같아요",
        -9.243430194131214
      ],
      [
        "▁ᄌᄂ",
        -9.24559373393929
      ],
      [
        "빠",
        -9.245967364590998
      ],
      [
        "▁대부분",
        -9.246857739651476
      ],
      [
        "▁누나",
        -9.246988716113794
      ],
      [
        "격",
        -9.247107351836108
      ],
      [
        "▁이래서",
        -9.250406405534124
      ],
      [
        "▁지금은",
        -9.252859415393075
      ],
      [
        "▁들",
        -9.254027876733678
      ],
      [
        "▁저도",
        -9.254238057794286
      ],
      [
        "▁안가",
        -9.255186069963226
      ],
      [
        "셔",
        -9.255667039505155
      ],
      [
        "▁아니지",
        -9.255701854356042
      ],
      [
        "▁왜케",
        -9.255965008929104
      ],
      [
        "지마",
        -9.256399346779824
      ],
      [
        "출",
        -9.256599135854533
      ],
      [
        "였는데",
        -9.2573292389095
      ],
      [
        "▁분위기",
        -9.257929114819992
      ],
      [
        "철",
        -9.259035950462511
      ],
      [
        "나와",
        -9.259730552231668
      ],
      [
        "생활",
        -9.259823372842918
      ],
      [
        "▁애가",
        -9.26112651089663
      ],
      [
        "했고",
        -9.261510120480237
      ],
      [
        "▁댓글들",
        -9.262079240482878
      ],
      [
        "▁실수",
        -9.26316946400739
      ],
      [
        "▁가슴",
        -9.263178146456788
      ],
      [
        "▁신고",
        -9.265514976049229
      ],
      [
        "▁못하는",
        -9.265813036690634
      ],
      [
        "▁어디서",
        -9.266149660383102
      ],
      [
        "받",
        -9.269430437239311
      ],
      [
        "▁민",
        -9.269467652532663
      ],
      [
        "▁몰라",
        -9.270381175222084
      ],
      [
        "▁수사",
        -9.27076418394578
      ],
      [
        "및",
        -9.27118503052138
      ],
      [
        "케",
        -9.272744928721814
      ],
      [
        "▁ᄌ",
        -9.273522098179136
      ],
      [
        "▁실",
        -9.274524442623814
      ],
      [
        "▁쫌",
        -9.274841166608184
      ],
      [
        "▁화",
        -9.275123621051256
      ],
      [
        "조작",
        -9.275223439647185
      ],
      [
        "▁이승기",
        -9.275542437535844
      ],
      [
        "▁못하고",
        -9.27588086150171
      ],
      [
        "▁커",
        -9.276222121797929
      ],
      [
        "▁확실히",
        -9.276239919747514
      ],
      [
        "에서도",
        -9.27798254333829
      ],
      [
        "근데",
        -9.27852322057487
      ],
      [
        "▁(",
        -9.28028847467335
      ],
      [
        "▁바",
        -9.280488577412164
      ],
      [
        "▁않아",
        -9.281659711629825
      ],
      [
        "빼",
        -9.284400495031536
      ],
      [
        "▁확",
        -9.28489808939424
      ],
      [
        "던가",
        -9.285816654964648
      ],
      [
        "▁해결",
        -9.28620660449297
      ],
      [
        "▁그저",
        -9.286410796612335
      ],
      [
        "▁증거",
        -9.286965875298204
      ],
      [
        "▁행복한",
        -9.2873277022533
      ],
      [
        "취",
        -9.287820168679415
      ],
      [
        "▁현",
        -9.28803323770376
      ],
      [
        "▁받",
        -9.288781363579735
      ],
      [
        "▁한남",
        -9.289857359417049
      ],
      [
        "▁곧",
        -9.290081011436762
      ],
      [
        "▁예쁘고",
        -9.290710605587774
      ],
      [
        "▁순",
        -9.29102717390404
      ],
      [
        "에는",
        -9.291791670627909
      ],
      [
        "▁애초에",
        -9.292795037920635
      ],
      [
        "▁부모님",
        -9.292797192334293
      ],
      [
        "▁삼",
        -9.293040184233533
      ],
      [
        "▁돈을",
        -9.29318954914475
      ],
      [
        "▁그것도",
        -9.293467768405296
      ],
      [
        "❤",
        -9.29347203656692
      ],
      [
        "▁싸",
        -9.294017830731866
      ],
      [
        "것들이",
        -9.29496940569272
      ],
      [
        "▁산",
        -9.29643272447529
      ],
      [
        "▁직접",
        -9.297108307460494
      ],
      [
        "걸로",
        -9.297340933051515
      ],
      [
        "▁기사를",
        -9.298027343611352
      ],
      [
        "ᆺ는데",
        -9.298332318089084
      ],
      [
        "기는",
        -9.299769745228865
      ],
      [
        "ᆻ나",
        -9.300706509913388
      ],
      [
        "▁한거",
        -9.302030346182187
      ],
      [
        "이런",
        -9.30276323377044
      ],
      [
        "▁있음",
        -9.303173948101678
      ],
      [
        "와서",
        -9.303869068616216
      ],
      [
        "▁그건",
        -9.304233549538472
      ],
      [
        "▁인간들",
        -9.304428405476154
      ],
      [
        "전에",
        -9.305415481374062
      ],
      [
        "▁저리",
        -9.305773389100604
      ],
      [
        "▁뭐냐",
        -9.30629909802036
      ],
      [
        "패",
        -9.306460922962795
      ],
      [
        "▁진심으로",
        -9.306916855229163
      ],
      [
        "▁빕니다",
        -9.307129876906783
      ],
      [
        "▁가지",
        -9.30829205447204
      ],
      [
        "표",
        -9.30859280465992
      ],
      [
        "▁김건모",
        -9.309279810505124
      ],
      [
        "▁모르",
        -9.309869393156411
      ],
      [
        "▁명",
        -9.311357553756656
      ],
      [
        "거지",
        -9.313526657957151
      ],
      [
        "▁감동",
        -9.313750558324298
      ],
      [
        "ᄋ",
        -9.3140590499928
      ],
      [
        "▁했으면",
        -9.314312158797136
      ],
      [
        "▁버",
        -9.314985483951649
      ],
      [
        "이라니",
        -9.315156994781358
      ],
      [
        "▁얼마",
        -9.316576601159095
      ],
      [
        "▁현아",
        -9.316773081338416
      ],
      [
        "▁싫다",
        -9.316867404059412
      ],
      [
        "아이",
        -9.316881937738488
      ],
      [
        "▁감정",
        -9.317511447711404
      ],
      [
        "▁빅뱅",
        -9.319086262821235
      ],
      [
        "▁부인",
        -9.319234334931837
      ],
      [
        "▁사기",
        -9.319305893671787
      ],
      [
        "기만",
        -9.31943539674926
      ],
      [
        "▁아니지만",
        -9.319938964915163
      ],
      [
        "▁실망",
        -9.320171057200673
      ],
      [
        "▁방송에",
        -9.32042355048706
      ],
      [
        "▁YG",
        -9.320542805950495
      ],
      [
        "▁싶어",
        -9.321206963090203
      ],
      [
        "▁하세요",
        -9.32178975534884
      ],
      [
        "▁수도",
        -9.322070471193024
      ],
      [
        "▁귀",
        -9.322455413036094
      ],
      [
        "그래",
        -9.323010295446744
      ],
      [
        "언",
        -9.323222720706791
      ],
      [
        "▁이리",
        -9.32356836048867
      ],
      [
        "ᆻ을때",
        -9.324012910856512
      ],
      [
        "▁있다고",
        -9.32423061830728
      ],
      [
        "ᆷ?",
        -9.32429804849868
      ],
      [
        "▁니네",
        -9.324451799015597
      ],
      [
        "▁짓",
        -9.325404683357675
      ],
      [
        "때부터",
        -9.325462306186376
      ],
      [
        "더라.",
        -9.325771398353936
      ],
      [
        "▁가는",
        -9.326697724534442
      ],
      [
        "▁맞는",
        -9.326994458077124
      ],
      [
        "▁축하해요",
        -9.327201863467293
      ],
      [
        "▁나혼자산다",
        -9.327243992228576
      ],
      [
        "ᆯ까?",
        -9.327450719130988
      ],
      [
        "냐??",
        -9.327534836132724
      ],
      [
        "한다.",
        -9.327755860917808
      ],
      [
        "귀",
        -9.328861637914953
      ],
      [
        "▁싶은",
        -9.329286051783656
      ],
      [
        "▁이영자",
        -9.330341829898332
      ],
      [
        "▁바람",
        -9.331058632915232
      ],
      [
        "▁부르",
        -9.332491930841924
      ],
      [
        "세요.",
        -9.333041637632148
      ],
      [
        "▁장난",
        -9.333892175306334
      ],
      [
        "▁온",
        -9.333950778006036
      ],
      [
        "▁지들이",
        -9.33408933415118
      ],
      [
        "▁스타일",
        -9.334677062890636
      ],
      [
        "▁갈",
        -9.334835110724612
      ],
      [
        "합니다.",
        -9.335239156201409
      ],
      [
        "▁송",
        -9.335598278596832
      ],
      [
        "▁예쁘다",
        -9.33566806077622
      ],
      [
        "▁미모",
        -9.335759111520051
      ],
      [
        "▁멤버들",
        -9.33587470167184
      ],
      [
        "▁기자가",
        -9.33618726660369
      ],
      [
        "▁듣고",
        -9.337407685404786
      ],
      [
        "▁아이들",
        -9.337643905848388
      ],
      [
        "5",
        -9.3382337531703
      ],
      [
        "▁지내",
        -9.33916219241098
      ],
      [
        "온",
        -9.33921731970201
      ],
      [
        "▁장사",
        -9.339286485958796
      ],
      [
        "▁정해인",
        -9.339671025608848
      ],
      [
        "맛",
        -9.340111110693872
      ],
      [
        "▁비난",
        -9.340151943845036
      ],
      [
        "▁해주",
        -9.34051027969202
      ],
      [
        "▁뒤",
        -9.340523281645076
      ],
      [
        "▁연기를",
        -9.340608366027803
      ],
      [
        "▁하네",
        -9.340886474637104
      ],
      [
        "▁분명",
        -9.341880081231784
      ],
      [
        "▁축하",
        -9.342479561952244
      ],
      [
        "▁ᄒᄒᄒ",
        -9.343452332656195
      ],
      [
        "짜",
        -9.344470703217528
      ],
      [
        "▁비교",
        -9.3449370146156
      ],
      [
        "누",
        -9.345478375262411
      ],
      [
        "▁자유",
        -9.346218380093228
      ],
      [
        "▁사람도",
        -9.34658136930544
      ],
      [
        "♥",
        -9.34716300196197
      ],
      [
        "벌",
        -9.34862919993759
      ],
      [
        "▁아내",
        -9.349276287304974
      ],
      [
        "▁눈에",
        -9.349750120833123
      ],
      [
        "없음",
        -9.3500003107271
      ],
      [
        "봤는데",
        -9.351178534792195
      ],
      [
        "▁패",
        -9.351824483418854
      ],
      [
        "▁생활",
        -9.3530703324495
      ],
      [
        "▁시청자",
        -9.353123297493598
      ],
      [
        "밥",
        -9.353178269940356
      ],
      [
        "▁나서",
        -9.354049861863116
      ],
      [
        "ᆻ을",
        -9.354220822717943
      ],
      [
        "▁나이가",
        -9.354439279962095
      ],
      [
        "▁결과",
        -9.354506003918658
      ],
      [
        "목",
        -9.354986419616532
      ],
      [
        "봐야",
        -9.35612069031249
      ],
      [
        "ᆫ것",
        -9.356262352657744
      ],
      [
        "▁6",
        -9.357054028980627
      ],
      [
        "죠?",
        -9.357760297003278
      ],
      [
        "떠",
        -9.358430548580934
      ],
      [
        "▁sns",
        -9.358811641401232
      ],
      [
        "▁다이어트",
        -9.35887594093724
      ],
      [
        "▁있",
        -9.359250694153182
      ],
      [
        "▁화사",
        -9.361359050860424
      ],
      [
        "▁아님?",
        -9.362487784257826
      ],
      [
        "ᆯ것",
        -9.363299272051147
      ],
      [
        "▁태어나",
        -9.363913355767668
      ],
      [
        "▁깨",
        -9.364614426494963
      ],
      [
        "받아",
        -9.364919201776564
      ],
      [
        "▁최고의",
        -9.365721632193612
      ],
      [
        "해주세요",
        -9.368734491455193
      ],
      [
        "는지",
        -9.36877734954614
      ],
      [
        "짱",
        -9.368845900235858
      ],
      [
        "ᆺ네",
        -9.369004179786048
      ],
      [
        "탈",
        -9.370052659998226
      ],
      [
        "▁먹어",
        -9.370166519344153
      ],
      [
        "▁예쁘",
        -9.370451312284048
      ],
      [
        "▁ᄍ",
        -9.370518444499174
      ],
      [
        "ᆻ을텐데",
        -9.372358714936595
      ],
      [
        "▁크게",
        -9.37281920938188
      ],
      [
        "▁좋겠어요",
        -9.373396827410753
      ],
      [
        "▁각",
        -9.3736318943074
      ],
      [
        "는거지",
        -9.373817519181758
      ],
      [
        "▁엑소",
        -9.374311450813938
      ],
      [
        "▁돌",
        -9.37487927602173
      ],
      [
        "▁~~",
        -9.375144050897458
      ],
      [
        "우리",
        -9.375411392879489
      ],
      [
        "▁힘",
        -9.375567575334752
      ],
      [
        "▁강남",
        -9.375853582954718
      ],
      [
        "▁같음",
        -9.375983355210105
      ],
      [
        "▁아깝다",
        -9.37629292955833
      ],
      [
        "는구나",
        -9.376849770215925
      ],
      [
        "▁매니저",
        -9.376882502013649
      ],
      [
        "▁많네",
        -9.379045618454027
      ],
      [
        "째",
        -9.380671733110049
      ],
      [
        "▁아저씨",
        -9.38108033689643
      ],
      [
        "▁판단",
        -9.381283504563758
      ],
      [
        "한건",
        -9.38136565866392
      ],
      [
        "▁답",
        -9.382414322884353
      ],
      [
        "하시고",
        -9.38242562109948
      ],
      [
        "▁스타",
        -9.382550997683133
      ],
      [
        "!!!!!",
        -9.383224512078725
      ],
      [
        "▁힘내",
        -9.383516018619444
      ],
      [
        "▁돼지",
        -9.38391711105648
      ],
      [
        "다..",
        -9.384642745155045
      ],
      [
        "▁착한",
        -9.388505707495952
      ],
      [
        "▁피해",
        -9.388692073383751
      ],
      [
        "일이",
        -9.389524378883726
      ],
      [
        "없",
        -9.38963175727131
      ],
      [
        "봄",
        -9.390951023211496
      ],
      [
        "▁잠",
        -9.391264493863234
      ],
      [
        "시키",
        -9.39219440928397
      ],
      [
        "▁고현정",
        -9.393110913941252
      ],
      [
        "▁느끼",
        -9.393207591653578
      ],
      [
        "▁온갖",
        -9.3939325981656
      ],
      [
        "평",
        -9.394002797191924
      ],
      [
        "됨",
        -9.394476367267488
      ],
      [
        "▁되게",
        -9.394489200141194
      ],
      [
        "ᅲᅲᅲ",
        -9.395785510159886
      ],
      [
        "송",
        -9.396394120930152
      ],
      [
        "▁더러운",
        -9.396450069258076
      ],
      [
        "림",
        -9.398769912856563
      ],
      [
        "▁많다",
        -9.399856897240824
      ],
      [
        "▁버닝썬",
        -9.400890488179511
      ],
      [
        "▁찍어",
        -9.400897683726026
      ],
      [
        "아들",
        -9.400953084116358
      ],
      [
        "▁있다.",
        -9.40105058763071
      ],
      [
        "ᆯ리",
        -9.401810786993382
      ],
      [
        "▁안나오",
        -9.401939168770816
      ],
      [
        "외",
        -9.402188264256772
      ],
      [
        "▁분들",
        -9.40246319168562
      ],
      [
        "▁천",
        -9.40308090018974
      ],
      [
        "되어",
        -9.40337960490396
      ],
      [
        "▁귀여워",
        -9.403568212504032
      ],
      [
        "▁잘되",
        -9.404126747880374
      ],
      [
        "가족",
        -9.404581453636457
      ],
      [
        "이제",
        -9.405290986720226
      ],
      [
        "▁살고",
        -9.407273912210115
      ],
      [
        "▁눈이",
        -9.408038490429384
      ],
      [
        "▁경우",
        -9.408293118149762
      ],
      [
        "쪽",
        -9.409205361477207
      ],
      [
        "ᆻ습니다.",
        -9.410633421688129
      ],
      [
        "▁:",
        -9.410886699538162
      ],
      [
        "짐",
        -9.411560478984883
      ],
      [
        "▁아닌듯",
        -9.411814871475594
      ],
      [
        "▁되고",
        -9.4122648635804
      ],
      [
        "▁의사",
        -9.413990988206534
      ],
      [
        "죠.",
        -9.414559739622916
      ],
      [
        "▁죄다",
        -9.414996582723614
      ],
      [
        "나요?",
        -9.415082799110936
      ],
      [
        "▁쓰는",
        -9.415903489177945
      ],
      [
        "▁sm",
        -9.416385392532774
      ],
      [
        "친구",
        -9.416595234896388
      ],
      [
        "ᆻ나?",
        -9.41737292692033
      ],
      [
        "숙",
        -9.418229747279316
      ],
      [
        "던지",
        -9.418846265224156
      ],
      [
        "환",
        -9.418985043936887
      ],
      [
        "▁악",
        -9.41939564929602
      ],
      [
        "▁그렇지",
        -9.41988150535714
      ],
      [
        "했어",
        -9.420091007507976
      ],
      [
        "하냐?",
        -9.420601383871546
      ],
      [
        "있음",
        -9.420619262362433
      ],
      [
        "▁양아치",
        -9.421106968963846
      ],
      [
        "▁애들은",
        -9.42112257906508
      ],
      [
        "▁7",
        -9.421171910212356
      ],
      [
        "▁세상에",
        -9.421944060801383
      ],
      [
        "▁있으니",
        -9.42203606280243
      ],
      [
        "▁비리",
        -9.422261924769288
      ],
      [
        "▁본다",
        -9.42233873183404
      ],
      [
        "▁팬이",
        -9.422863792638069
      ],
      [
        "맘",
        -9.423739120223594
      ],
      [
        "▁채널",
        -9.42396007325422
      ],
      [
        "▁상황",
        -9.424486331789115
      ],
      [
        "하려고",
        -9.424695647853785
      ],
      [
        "남편",
        -9.425122443052436
      ],
      [
        "다른",
        -9.42623123498845
      ],
      [
        "▁이러",
        -9.426371755535596
      ],
      [
        "▁입장",
        -9.426820643162248
      ],
      [
        "▁1도",
        -9.42682134674791
      ],
      [
        "s",
        -9.427250912417543
      ],
      [
        "▁일반",
        -9.427536914463824
      ],
      [
        "▁ᄃᄃ",
        -9.427758219275594
      ],
      [
        "+",
        -9.428194614776896
      ],
      [
        "▁직업",
        -9.428329215022735
      ],
      [
        "▁상처",
        -9.428775036781792
      ],
      [
        "▁10년",
        -9.429860251517525
      ],
      [
        "▁드라마는",
        -9.429932433060474
      ],
      [
        "▁웃기",
        -9.431645517693491
      ],
      [
        "▁알바",
        -9.432713602591235
      ],
      [
        "▁행복",
        -9.434088411858143
      ],
      [
        "▁와이프",
        -9.434327431630129
      ],
      [
        "▁올려",
        -9.434409253386136
      ],
      [
        "들에게",
        -9.43482772517816
      ],
      [
        "지가",
        -9.435440824743608
      ],
      [
        "▁하루",
        -9.43579880633051
      ],
      [
        "테",
        -9.435850781626064
      ],
      [
        "▁놈",
        -9.435856526963152
      ],
      [
        "▁보니까",
        -9.437571221904614
      ],
      [
        "찍",
        -9.438695940081434
      ],
      [
        "▁연기가",
        -9.439060830800036
      ],
      [
        "▁토",
        -9.440701823997648
      ],
      [
        "고..",
        -9.441507998178311
      ],
      [
        "▁그나마",
        -9.441583035576931
      ],
      [
        "▁가만히",
        -9.44248488452194
      ],
      [
        "브",
        -9.442978773227786
      ],
      [
        "▁나만",
        -9.4434058715847
      ],
      [
        "▁넘어가",
        -9.443512405160018
      ],
      [
        "▁표정",
        -9.443576991382702
      ],
      [
        "▁헤어지",
        -9.443847463030448
      ],
      [
        "▁하자",
        -9.44403724370499
      ],
      [
        "▁역",
        -9.44429595497098
      ],
      [
        "▁트와이스",
        -9.444493398597997
      ],
      [
        "▁잡",
        -9.444675744383307
      ],
      [
        "갑",
        -9.444786570715207
      ],
      [
        "동안",
        -9.445044458081696
      ],
      [
        "▁30",
        -9.445324158044707
      ],
      [
        "▁좋게",
        -9.445748802414316
      ],
      [
        "▁너네",
        -9.446562987281164
      ],
      [
        "ᆷ이",
        -9.448221627125612
      ],
      [
        "▁손예진",
        -9.44823813186731
      ],
      [
        "▁박유천",
        -9.448246529443075
      ],
      [
        "▁산다",
        -9.448279193173388
      ],
      [
        "▁빼고",
        -9.448609656199984
      ],
      [
        "▁옛날",
        -9.448641556087685
      ],
      [
        "술",
        -9.450255694615429
      ],
      [
        "구요",
        -9.45035394699986
      ],
      [
        "▁바랍니다",
        -9.450673029398237
      ],
      [
        "▁불륜",
        -9.451116700817224
      ],
      [
        "▁언급",
        -9.451130244028995
      ],
      [
        "ᆯ라",
        -9.451137955568536
      ],
      [
        "새끼",
        -9.451798660004613
      ],
      [
        "ᄍ",
        -9.45196787708284
      ],
      [
        "t",
        -9.453261833920738
      ],
      [
        "▁용서",
        -9.453727704409737
      ],
      [
        "▁첫",
        -9.4538485300094
      ],
      [
        "▁삼가",
        -9.454257717068822
      ],
      [
        "▁있을",
        -9.45468921940313
      ],
      [
        "보이",
        -9.454811566139467
      ],
      [
        "▁악플러들",
        -9.454986390246068
      ],
      [
        "▁이분",
        -9.455131616606815
      ],
      [
        "▁갓",
        -9.455888875605352
      ],
      [
        "하는지",
        -9.456330281790972
      ],
      [
        "ᆸ시다",
        -9.456971634271676
      ],
      [
        "~!",
        -9.456972943357783
      ],
      [
        "▁당신",
        -9.457069221207576
      ],
      [
        "쉬",
        -9.45715310823611
      ],
      [
        "ᆻ어요.",
        -9.45819939502279
      ],
      [
        "보내",
        -9.45821853215806
      ],
      [
        "려는",
        -9.458347540127336
      ],
      [
        "필",
        -9.458504223345637
      ],
      [
        "▁일을",
        -9.45941223178376
      ],
      [
        "▁해체",
        -9.460067239519589
      ],
      [
        "▁편집",
        -9.460257923009824
      ],
      [
        "자가",
        -9.46066268888784
      ],
      [
        "y",
        -9.46300674155038
      ],
      [
        "삼",
        -9.463278470025354
      ],
      [
        "▁마라",
        -9.463928923116018
      ],
      [
        "활동",
        -9.46454298723472
      ],
      [
        "▁얼굴도",
        -9.46459477007392
      ],
      [
        "해주",
        -9.464786554942336
      ],
      [
        "▁돌아가",
        -9.465068212400237
      ],
      [
        "▁쟤",
        -9.465325259311207
      ],
      [
        "책",
        -9.46611984223899
      ],
      [
        "된다",
        -9.46764889679132
      ],
      [
        "▁아나운서",
        -9.46825843158572
      ],
      [
        "▁아무도",
        -9.468456731387771
      ],
      [
        "인가요?",
        -9.468884987941928
      ],
      [
        "예능",
        -9.470030235062264
      ],
      [
        "▁식",
        -9.470402532836454
      ],
      [
        "ᆯ려",
        -9.470421590424918
      ],
      [
        "▁이병헌",
        -9.470994103619493
      ],
      [
        "가수",
        -9.471175740011777
      ],
      [
        "ᆻ습니다",
        -9.471823167565688
      ],
      [
        "▁기자님",
        -9.472236042145049
      ],
      [
        "이었는데",
        -9.47229371542635
      ],
      [
        "ᇀ",
        -9.472676951593025
      ],
      [
        "▁이제와서",
        -9.47300264093599
      ],
      [
        "▁이걸",
        -9.47307979928142
      ],
      [
        "▁메갈",
        -9.47319153675438
      ],
      [
        "▁변호사",
        -9.47321042355046
      ],
      [
        "▁기사가",
        -9.473845411139491
      ],
      [
        "▁사세요",
        -9.473949015861784
      ],
      [
        "▁50",
        -9.474489130257991
      ],
      [
        "▁축하드려요",
        -9.475004540714709
      ],
      [
        "▁알았는데",
        -9.475377355444657
      ],
      [
        "말이",
        -9.475786691234926
      ],
      [
        "▁요",
        -9.476624779033465
      ],
      [
        "▁질투",
        -9.477449064682029
      ],
      [
        "▁나오지",
        -9.479542490062302
      ],
      [
        "인데..",
        -9.480977881008938
      ],
      [
        "▁임",
        -9.481050972733254
      ],
      [
        "▁도박",
        -9.481309165988078
      ],
      [
        "▁있네",
        -9.481409003509652
      ],
      [
        "▁국",
        -9.48143548991568
      ],
      [
        "ᆻ음.",
        -9.482448526292552
      ],
      [
        "했다.",
        -9.482799127003004
      ],
      [
        "▁그럴",
        -9.483856493485344
      ],
      [
        "▁기사에",
        -9.483880879469163
      ],
      [
        "탓",
        -9.484652169348
      ],
      [
        "▁처럼",
        -9.485002109328754
      ],
      [
        "겠냐",
        -9.485140276527412
      ],
      [
        "▁스트레스",
        -9.486752526033934
      ],
      [
        "▁막장",
        -9.486753547672857
      ],
      [
        "▁은퇴",
        -9.487048736657552
      ],
      [
        "▁끼",
        -9.487615160989897
      ],
      [
        "같다",
        -9.488090240169802
      ],
      [
        "누나",
        -9.488142600415374
      ],
      [
        "▁홍",
        -9.489275819330574
      ],
      [
        "▁메",
        -9.489606129418588
      ],
      [
        "▁외국",
        -9.48963917249486
      ],
      [
        "▁주연",
        -9.489715065040432
      ],
      [
        "▁못해",
        -9.490163312646905
      ],
      [
        "합",
        -9.491506583173916
      ],
      [
        "이라면",
        -9.491552992580267
      ],
      [
        "쓰레기",
        -9.491676033211515
      ],
      [
        "▁1년",
        -9.491788448367169
      ],
      [
        "▁아니냐",
        -9.49207600293712
      ],
      [
        "ᇂ",
        -9.492482512485386
      ],
      [
        "하던데",
        -9.493312495709562
      ],
      [
        "▁만든",
        -9.493457758264643
      ],
      [
        "▁집에",
        -9.493631131842962
      ],
      [
        "▁요새",
        -9.493879892993206
      ],
      [
        "▁싸우",
        -9.494392257022618
      ],
      [
        "▁사업",
        -9.494688727674829
      ],
      [
        "린",
        -9.495256854364232
      ],
      [
        "▁목",
        -9.495635870061662
      ],
      [
        "보기",
        -9.495887595400657
      ],
      [
        "▁순간",
        -9.49608098553437
      ],
      [
        "▁마녀사냥",
        -9.497055608933792
      ],
      [
        "▁반대",
        -9.497694545775758
      ],
      [
        "▁거지",
        -9.497887754274728
      ],
      [
        "▁나올",
        -9.498114985050718
      ],
      [
        "▁여배우",
        -9.49817899941358
      ],
      [
        "느낌",
        -9.498565388160143
      ],
      [
        "▁못한",
        -9.4991374759665
      ],
      [
        "▁확인",
        -9.499522971146416
      ],
      [
        "▁기다리",
        -9.499625116311543
      ],
      [
        "▁40대",
        -9.499887011960285
      ],
      [
        "▁한명",
        -9.500046039389495
      ],
      [
        "하다가",
        -9.50007272769293
      ],
      [
        "아빠",
        -9.501452390791686
      ],
      [
        "나이",
        -9.502465559345875
      ],
      [
        "▁극",
        -9.50262730108071
      ],
      [
        "하라",
        -9.502739164792228
      ],
      [
        "있다",
        -9.503194667912735
      ],
      [
        "▁리",
        -9.50345611745552
      ],
      [
        "▁드",
        -9.503465195421512
      ],
      [
        "..?",
        -9.504319702565663
      ],
      [
        "▁나대",
        -9.504436577418891
      ],
      [
        "ᄂ",
        -9.505268196283527
      ],
      [
        "아님",
        -9.505562405696695
      ],
      [
        "▁이효리",
        -9.506114827217838
      ],
      [
        "▁20",
        -9.506137333858163
      ],
      [
        "▁하시",
        -9.507438077647896
      ],
      [
        "▁모델",
        -9.50744422860256
      ],
      [
        "해라.",
        -9.50800250551518
      ],
      [
        "▁바보",
        -9.50825559640446
      ],
      [
        "▁좋겠다.",
        -9.508584627302136
      ],
      [
        "들한테",
        -9.509016374871612
      ],
      [
        "▁여자들은",
        -9.50907433129011
      ],
      [
        "e",
        -9.509299826837118
      ],
      [
        "ᆻ냐?",
        -9.509614410194544
      ],
      [
        "▁송가인",
        -9.510566278169076
      ],
      [
        "▁대표",
        -9.511039309037145
      ],
      [
        "기에",
        -9.511389704595288
      ],
      [
        "▁나오고",
        -9.512727781284076
      ],
      [
        "▁바라",
        -9.51309949029811
      ],
      [
        "▁딸이",
        -9.514166125683392
      ],
      [
        "▁시키",
        -9.514281860843395
      ],
      [
        "▁앞으로도",
        -9.514323519114797
      ],
      [
        "길래",
        -9.514790978862049
      ],
      [
        "놈들",
        -9.515073235119797
      ],
      [
        "독",
        -9.515089485836208
      ],
      [
        "같아",
        -9.515850453192993
      ],
      [
        "▁많고",
        -9.516415987533907
      ],
      [
        "연애",
        -9.517058031154384
      ],
      [
        "광",
        -9.518136187817312
      ],
      [
        "ᄀ",
        -9.518243491405974
      ],
      [
        "할듯",
        -9.5187614048769
      ],
      [
        "▁해야지",
        -9.51946842082943
      ],
      [
        "▁벌어",
        -9.520047853855552
      ],
      [
        "쯤",
        -9.521378071574148
      ],
      [
        "▁한국에서",
        -9.521470202802613
      ],
      [
        "▁걸리",
        -9.522170397138485
      ],
      [
        "무슨",
        -9.523008071927173
      ],
      [
        "▁찍",
        -9.524080925334465
      ],
      [
        "▁군대가",
        -9.524299879334253
      ],
      [
        "▁실력",
        -9.524761183877471
      ],
      [
        "▁드라마가",
        -9.525041124218124
      ],
      [
        "▁제작진",
        -9.525261071505152
      ],
      [
        "▁연예",
        -9.525497033338164
      ],
      [
        "▁팔",
        -9.525527782319353
      ],
      [
        "▁우리가",
        -9.526553155212357
      ],
      [
        "▁데",
        -9.52722417565339
      ],
      [
        "6",
        -9.52750171272211
      ],
      [
        "▁욕을",
        -9.52752392936857
      ],
      [
        "▁세계",
        -9.527632260364385
      ],
      [
        "▁연기력",
        -9.527655730315528
      ],
      [
        "▁집에서",
        -9.527719783927454
      ],
      [
        "▁만드는",
        -9.52783878598931
      ],
      [
        "▁대단하다",
        -9.528142376167374
      ],
      [
        "▁사실이",
        -9.528435443626815
      ],
      [
        "님이",
        -9.52854319911719
      ],
      [
        "▁실제로",
        -9.528694732390086
      ],
      [
        "올리",
        -9.52890852603906
      ],
      [
        "ᆽ",
        -9.528964315002888
      ],
      [
        "눈",
        -9.528972271648406
      ],
      [
        "분이",
        -9.529164247755295
      ],
      [
        "자들",
        -9.529752571935836
      ],
      [
        "▁지금까지",
        -9.530357415980143
      ],
      [
        "▁ᄌᄅ",
        -9.53080253507786
      ],
      [
        "▁기본",
        -9.530807637117857
      ],
      [
        "될",
        -9.530987260446288
      ],
      [
        "▁ᄅᄋ",
        -9.530994089380869
      ],
      [
        "▁준",
        -9.531340359665952
      ],
      [
        "▁박서준",
        -9.531457376519183
      ],
      [
        "▁얘네",
        -9.53158572720487
      ],
      [
        "ᆻ네요",
        -9.532171120825886
      ],
      [
        "▁너도",
        -9.534861416421464
      ],
      [
        "▁빠지",
        -9.535148765068405
      ],
      [
        "살아",
        -9.535484505947911
      ],
      [
        "▁일부러",
        -9.536335183878672
      ],
      [
        "▁극혐",
        -9.53635787096364
      ],
      [
        "▁신경",
        -9.536582408337695
      ],
      [
        "▁유명",
        -9.536756367281058
      ],
      [
        "▁지랄",
        -9.536884584916171
      ],
      [
        "값",
        -9.537314783447206
      ],
      [
        "족",
        -9.53758647272108
      ],
      [
        "▁올해",
        -9.53812220827817
      ],
      [
        "▁제가",
        -9.538250038932311
      ],
      [
        "▁어머니",
        -9.53838066055905
      ],
      [
        "▁악플다는",
        -9.538935872752983
      ],
      [
        "▁아닌거",
        -9.539151912492413
      ],
      [
        "마음",
        -9.540522430324629
      ],
      [
        "▁첨",
        -9.541286274082818
      ],
      [
        "▁저기",
        -9.541354511232791
      ],
      [
        "▁쇼",
        -9.541533622513326
      ],
      [
        "▁티",
        -9.54202149659408
      ],
      [
        "품",
        -9.542281527270404
      ],
      [
        "▁아니다.",
        -9.542565642985323
      ],
      [
        "▁저거",
        -9.54295973161246
      ],
      [
        "되서",
        -9.543223615994798
      ],
      [
        "▁뭔지",
        -9.54466708757931
      ],
      [
        "▁남친",
        -9.544937716542398
      ],
      [
        "▁마세요",
        -9.544978300836036
      ],
      [
        "▁준비",
        -9.545444286988191
      ],
      [
        "▁사랑해",
        -9.545949148753088
      ],
      [
        "▁아예",
        -9.546746955247642
      ],
      [
        "▁여친",
        -9.547024346473556
      ],
      [
        "▁배려",
        -9.547489267704382
      ],
      [
        "▁생각하는",
        -9.54774557022404
      ],
      [
        "베",
        -9.54786499650579
      ],
      [
        "▁이딴",
        -9.548180948593076
      ],
      [
        "▁수술",
        -9.548464295515124
      ],
      [
        "▁공연",
        -9.54936042669113
      ],
      [
        "▁진행",
        -9.549801152727111
      ],
      [
        "▁여주",
        -9.550028250278936
      ],
      [
        "많은",
        -9.550914603935134
      ],
      [
        "▁인터뷰",
        -9.551026291050164
      ],
      [
        "m",
        -9.55104390019111
      ],
      [
        "▁열폭",
        -9.551552283914644
      ],
      [
        "▁음",
        -9.552371997193983
      ],
      [
        "▁미우새",
        -9.55410370959656
      ],
      [
        "▁yg",
        -9.55460175911243
      ],
      [
        "탄",
        -9.55602483657422
      ],
      [
        "▁8",
        -9.556323630543597
      ],
      [
        "습니다",
        -9.556684144096264
      ],
      [
        "▁멋지다",
        -9.557447014900395
      ],
      [
        "▁된다",
        -9.558222886341076
      ],
      [
        "▁덜",
        -9.55917875892893
      ],
      [
        "▁가해자",
        -9.559526007796247
      ],
      [
        "안하고",
        -9.560170940252448
      ],
      [
        "▁개돼지",
        -9.560228491757927
      ],
      [
        "▁봐라",
        -9.560241736069084
      ],
      [
        "▁동안",
        -9.560374175707494
      ],
      [
        "▁했다",
        -9.560521843975216
      ],
      [
        "▁여전히",
        -9.560979533544865
      ],
      [
        "▁좋아서",
        -9.561242368127049
      ],
      [
        "▁김종국",
        -9.56147158432919
      ],
      [
        "성이",
        -9.561544156660128
      ],
      [
        "▁이쁘게",
        -9.561592803292898
      ],
      [
        "▁불러",
        -9.562976061696055
      ],
      [
        "▁....",
        -9.563178312196186
      ],
      [
        "▁그러니",
        -9.563439279579796
      ],
      [
        "▁합니다",
        -9.56348642885133
      ],
      [
        "▁쓴",
        -9.563841112266047
      ],
      [
        "드라",
        -9.563905645178815
      ],
      [
        "▁지디",
        -9.564487172154347
      ],
      [
        "▁예뻐",
        -9.564829815343252
      ],
      [
        "▁봄",
        -9.565075429982716
      ],
      [
        "수준",
        -9.565438211470052
      ],
      [
        "▁한다고",
        -9.565653996066413
      ],
      [
        "▁홍진영",
        -9.566505618020292
      ],
      [
        "▁후회",
        -9.56685002758249
      ],
      [
        "a",
        -9.567081013562548
      ],
      [
        "욱",
        -9.56752133548941
      ],
      [
        "▁할머니",
        -9.56876668821177
      ],
      [
        "▁똑같이",
        -9.56937722340599
      ],
      [
        "▁지나",
        -9.569719466984878
      ],
      [
        "요...",
        -9.569970530316729
      ],
      [
        "▁존재",
        -9.570058172689173
      ],
      [
        "하시",
        -9.57198227410705
      ],
      [
        "▁왠지",
        -9.572277671836789
      ],
      [
        "▁가게",
        -9.572424238202544
      ],
      [
        "년들",
        -9.572736762280446
      ],
      [
        "▁연락",
        -9.572800154229691
      ],
      [
        "▁역할",
        -9.573143544116988
      ],
      [
        "봉",
        -9.57328011982016
      ],
      [
        "냐.",
        -9.574171042092608
      ],
      [
        "움",
        -9.574769057677791
      ],
      [
        "▁찌",
        -9.574861420467723
      ],
      [
        "▁캐스팅",
        -9.574990948677955
      ],
      [
        "▁합의",
        -9.57549189746611
      ],
      [
        "♡♡",
        -9.576250904267871
      ],
      [
        "▁시간이",
        -9.577450608543618
      ],
      [
        "▁까지",
        -9.578138652453848
      ],
      [
        "▁못생긴",
        -9.57824434735236
      ],
      [
        "0",
        -9.57863545509981
      ],
      [
        "▁되는거",
        -9.578968511344648
      ],
      [
        "느",
        -9.579023628877938
      ],
      [
        "▁으",
        -9.579359081577106
      ],
      [
        "▁한다.",
        -9.579433186836658
      ],
      [
        "팀",
        -9.580653877901906
      ],
      [
        "▁ᄏᄏᄏᄏᄏᄏᄏᄏ",
        -9.580763964635484
      ],
      [
        "꼭",
        -9.58079185758386
      ],
      [
        "▁놀라",
        -9.581624247851924
      ],
      [
        "▁빠져",
        -9.583392844906353
      ],
      [
        "효",
        -9.583644234913844
      ],
      [
        "▁여행",
        -9.5848708410236
      ],
      [
        "▁매력이",
        -9.585319812863062
      ],
      [
        "꾸",
        -9.585343625888829
      ],
      [
        "▁폭행",
        -9.585713883937904
      ],
      [
        "▁같",
        -9.585754593296022
      ],
      [
        "k",
        -9.585960942921012
      ],
      [
        "▁현재",
        -9.586610353193343
      ],
      [
        "▁본방사수",
        -9.586781502500957
      ],
      [
        "▁뭐야",
        -9.586902157918
      ],
      [
        "ᆻ구나",
        -9.587293953184254
      ],
      [
        "▁예쁘게",
        -9.58745553665147
      ],
      [
        "▁있지만",
        -9.589185096730096
      ],
      [
        "▁관계",
        -9.590004246079506
      ],
      [
        "▁지금도",
        -9.590341573417868
      ],
      [
        "▁장면",
        -9.59077475806506
      ],
      [
        "▁누군가",
        -9.59206919302083
      ],
      [
        "홍",
        -9.592332247000655
      ],
      [
        "▁빕니다.",
        -9.59239854201128
      ],
      [
        "▁응원합니다.",
        -9.592861639335494
      ],
      [
        "▁수준이",
        -9.593115226422723
      ],
      [
        "▁아줌마들",
        -9.593146299247833
      ],
      [
        "름",
        -9.593315392015992
      ],
      [
        "만나",
        -9.595369089256476
      ],
      [
        "스타",
        -9.595515285907307
      ],
      [
        "그런",
        -9.596050332120369
      ],
      [
        "▁돈도",
        -9.596243702437077
      ],
      [
        "▁바꾸",
        -9.596258310324862
      ],
      [
        "누구",
        -9.597202666334
      ],
      [
        "▁꽃뱀",
        -9.59781175172884
      ],
      [
        "▁딴",
        -9.598917490867594
      ],
      [
        "▁뭐라고",
        -9.599427337372012
      ],
      [
        "▁협박",
        -9.600007690246764
      ],
      [
        "▁ᅲᅲᅲ",
        -9.600109207470451
      ],
      [
        "▁연기는",
        -9.600568889012166
      ],
      [
        "▁살인",
        -9.600830403310898
      ],
      [
        "▁먼",
        -9.60102854041519
      ],
      [
        "없네",
        -9.601499581383266
      ],
      [
        "시켜",
        -9.602074514494827
      ],
      [
        "▁책임",
        -9.602124512894946
      ],
      [
        "▁늙은",
        -9.60328908101157
      ],
      [
        "사람은",
        -9.603356374891458
      ],
      [
        "▁다르",
        -9.60354209297222
      ],
      [
        "▁폭로",
        -9.603660652541732
      ],
      [
        "내고",
        -9.603864159678626
      ],
      [
        "▁안된다",
        -9.604053954937532
      ],
      [
        "▁사기꾼",
        -9.604169185400831
      ],
      [
        "▁용",
        -9.604356703062283
      ],
      [
        "▁쓸",
        -9.604499932415038
      ],
      [
        "한듯",
        -9.604627660695684
      ],
      [
        "▁합니다.",
        -9.604688660615205
      ],
      [
        "ᆺ음",
        -9.605746138987415
      ],
      [
        "만원",
        -9.605763057303523
      ],
      [
        "▁끝내",
        -9.605865830714258
      ],
      [
        "사는",
        -9.606120939900585
      ],
      [
        "야?",
        -9.606314503577018
      ],
      [
        "몸",
        -9.60723115233762
      ],
      [
        "▁걸그룹",
        -9.607338741941334
      ],
      [
        "~♡",
        -9.607447136511617
      ],
      [
        "할수",
        -9.607551890684904
      ],
      [
        "적이",
        -9.607872830652193
      ],
      [
        "▁갈수록",
        -9.60790250175272
      ],
      [
        "▁자라",
        -9.608544473308704
      ],
      [
        "풍",
        -9.608691938432305
      ],
      [
        "▁만나서",
        -9.608957586279084
      ],
      [
        "▁얼굴에",
        -9.609158480586515
      ],
      [
        "▁개인적으로",
        -9.609588648271014
      ],
      [
        "▁이시언",
        -9.610563971480858
      ],
      [
        "▁예술",
        -9.610761116408868
      ],
      [
        "▁베",
        -9.610968829151815
      ],
      [
        "ᆻ겠지",
        -9.61133871883776
      ],
      [
        "▁상대",
        -9.611348236162192
      ],
      [
        "▁이번에",
        -9.611514217522275
      ],
      [
        "지금",
        -9.612011737644124
      ],
      [
        "▁훨",
        -9.612017015016002
      ],
      [
        "▁문재앙",
        -9.612232712555953
      ],
      [
        "7",
        -9.612762010738091
      ],
      [
        "하더니",
        -9.61323815919202
      ],
      [
        "▁잘하는",
        -9.614335156458749
      ],
      [
        "▁섭외",
        -9.61506812586111
      ],
      [
        "▁아니냐?",
        -9.615465814397304
      ],
      [
        "▁있어요",
        -9.61567522488843
      ],
      [
        "▁어디가",
        -9.615868208685276
      ],
      [
        "▁하니",
        -9.615890599017035
      ],
      [
        "견",
        -9.616980724690706
      ],
      [
        "▁생각해",
        -9.617103347114998
      ],
      [
        "씬",
        -9.617429090934705
      ],
      [
        "맨",
        -9.6176108462173
      ],
      [
        "▁없으면",
        -9.618196519729182
      ],
      [
        "냐고",
        -9.618248562445654
      ],
      [
        "안되",
        -9.618249429895137
      ],
      [
        "착",
        -9.61838277181511
      ],
      [
        "자식",
        -9.618521609331388
      ],
      [
        "야.",
        -9.618590264219744
      ],
      [
        "▁일어나",
        -9.618808169436113
      ],
      [
        "o",
        -9.619063699071246
      ],
      [
        "셔서",
        -9.619096325568718
      ],
      [
        "정신",
        -9.619407483659025
      ],
      [
        "▁의심",
        -9.62011866424703
      ],
      [
        "그만",
        -9.621134229213515
      ],
      [
        "같은데",
        -9.621204309394516
      ],
      [
        "하는것",
        -9.62169834954458
      ],
      [
        "9",
        -9.622888545985363
      ],
      [
        "▁해명",
        -9.623014133539977
      ],
      [
        "▁호감",
        -9.623022461091733
      ],
      [
        "▁가진",
        -9.623142472144435
      ],
      [
        "▁대놓고",
        -9.624454326904438
      ],
      [
        "인데...",
        -9.624514259616316
      ],
      [
        "▁치료",
        -9.624525846234938
      ],
      [
        "▁기자들",
        -9.624658086096956
      ],
      [
        "▁바뀌",
        -9.624680918098164
      ],
      [
        "문재인",
        -9.625031193027253
      ],
      [
        "▁보는데",
        -9.625138496302032
      ],
      [
        "지고",
        -9.625668059754693
      ],
      [
        "▁것이",
        -9.625979783910264
      ],
      [
        "▁좋다고",
        -9.62613187311822
      ],
      [
        "건데",
        -9.626490185152552
      ],
      [
        "▁힘들게",
        -9.627972157211122
      ],
      [
        "▁비슷한",
        -9.628187722266702
      ],
      [
        "▁생각하고",
        -9.628888260442842
      ],
      [
        "▁불법",
        -9.6290540887979
      ],
      [
        "▁통",
        -9.629319060222418
      ],
      [
        "▁진정한",
        -9.629362638164944
      ],
      [
        "뒤",
        -9.629547971390489
      ],
      [
        "▁꿀잼",
        -9.630285256561676
      ],
      [
        "▁짜증나",
        -9.63063232437058
      ],
      [
        "▁당",
        -9.630813979403392
      ],
      [
        "▁찾아",
        -9.631652871241622
      ],
      [
        "▁거기",
        -9.632611483009867
      ],
      [
        "▁만들",
        -9.633202437176026
      ],
      [
        "▁한남들",
        -9.63396897031858
      ],
      [
        "께",
        -9.634755615869867
      ],
      [
        "▁지키",
        -9.63495045066272
      ],
      [
        "ᆻ을까",
        -9.63585993217417
      ],
      [
        "▁보여",
        -9.635978128813056
      ],
      [
        "▁없지",
        -9.63599103309761
      ],
      [
        "▁요리",
        -9.636471591692093
      ],
      [
        "▁그닥",
        -9.636925814368304
      ],
      [
        "▁아들이",
        -9.63730472208026
      ],
      [
        "그룹",
        -9.637347180301294
      ],
      [
        "황",
        -9.637521560448782
      ],
      [
        "▁자리",
        -9.637526788579793
      ],
      [
        "향",
        -9.63773485549164
      ],
      [
        "▁시상식",
        -9.637738675097168
      ],
      [
        "▁조국",
        -9.638062730285236
      ],
      [
        "빈",
        -9.63972794439659
      ],
      [
        "▁좋음",
        -9.640627884291035
      ],
      [
        "▁정도로",
        -9.640784766287265
      ],
      [
        "▁인성이",
        -9.640822805436374
      ],
      [
        "▁피디",
        -9.641091775270173
      ],
      [
        "▁결혼은",
        -9.641687894818208
      ],
      [
        "빼고",
        -9.642545269511418
      ],
      [
        "▁출신",
        -9.642732885687394
      ],
      [
        "나서",
        -9.64277028046327
      ],
      [
        "▁인지도",
        -9.64413147016639
      ],
      [
        "시대",
        -9.6445710375495
      ],
      [
        "짝",
        -9.644701673580933
      ],
      [
        "부모",
        -9.64571188455132
      ],
      [
        "요~~",
        -9.645777223019454
      ],
      [
        "▁씨",
        -9.646473979767602
      ],
      [
        "▁축하합니다",
        -9.647421271037684
      ],
      [
        "▁정부",
        -9.647564052131816
      ],
      [
        "조차",
        -9.647662668881985
      ],
      [
        "▁경제",
        -9.64813435700863
      ],
      [
        "구속",
        -9.648931217473391
      ],
      [
        "▁ᄃ",
        -9.648941622629224
      ],
      [
        "인이",
        -9.649063031573888
      ],
      [
        "▁빠",
        -9.64910355590056
      ],
      [
        "▁보고싶다",
        -9.64975110447797
      ],
      [
        "▁몰라도",
        -9.650024629128772
      ],
      [
        "▁터지",
        -9.650052388112409
      ],
      [
        "▁등등",
        -9.650090288969
      ],
      [
        "▁앨범",
        -9.650367575367676
      ],
      [
        "▁이기",
        -9.650760163175772
      ],
      [
        "▁오바",
        -9.651380352693188
      ],
      [
        "▁화장",
        -9.651522302925557
      ],
      [
        "▁떨어지",
        -9.651818739547286
      ],
      [
        "▁생긴",
        -9.651912347222794
      ],
      [
        "▁밝히",
        -9.653148714076004
      ],
      [
        "ᄅ",
        -9.653501757984944
      ],
      [
        "버리",
        -9.653887215390334
      ],
      [
        "▁불쌍하다",
        -9.653966864386646
      ],
      [
        "▁새로운",
        -9.65426714786132
      ],
      [
        "이여",
        -9.654714107465155
      ],
      [
        "뿐",
        -9.65491746980005
      ],
      [
        "ᆮ",
        -9.65602046517591
      ],
      [
        "▁잘생긴",
        -9.657075841489997
      ],
      [
        "▁작",
        -9.657791601143645
      ],
      [
        "▁집안",
        -9.657986842106936
      ],
      [
        "▁속이",
        -9.658148982069791
      ],
      [
        "▁열애설",
        -9.658547664418782
      ],
      [
        "일뿐",
        -9.658852595202143
      ],
      [
        "둘",
        -9.659347943634597
      ],
      [
        "듯이",
        -9.659802244579785
      ],
      [
        "▁결혼을",
        -9.659962571520309
      ],
      [
        "아닌",
        -9.660025596278532
      ],
      [
        "▁꼬",
        -9.660751261462051
      ],
      [
        "▁40",
        -9.660764413073704
      ],
      [
        "▁매일",
        -9.66124763691726
      ],
      [
        "▁유지",
        -9.661610269592828
      ],
      [
        "▁ᄍᄍᄍ",
        -9.661656457622216
      ],
      [
        "▁갑질",
        -9.661812932978757
      ],
      [
        "▁황",
        -9.661964459836632
      ],
      [
        "기전에",
        -9.662712673666116
      ],
      [
        "▁낳아",
        -9.663169457459848
      ],
      [
        "놈이",
        -9.66345369270228
      ],
      [
        "▁콘서트",
        -9.663664867554925
      ],
      [
        "▁암튼",
        -9.664179395649512
      ],
      [
        "▁받을",
        -9.664353988319728
      ],
      [
        "▁해주세요",
        -9.664856133780496
      ],
      [
        "▁변",
        -9.665543271997429
      ],
      [
        "▁교",
        -9.665587933873862
      ],
      [
        "▁힘내요",
        -9.66600699162299
      ],
      [
        "놔",
        -9.666061914890012
      ],
      [
        "▁관련",
        -9.666799029840952
      ],
      [
        "▁거짓",
        -9.66682390858042
      ],
      [
        "비리",
        -9.667221957346095
      ],
      [
        "ᆻ다는",
        -9.667955794061545
      ],
      [
        "▁아무것도",
        -9.668356148142744
      ],
      [
        "기가",
        -9.669013260631196
      ],
      [
        "▁아마",
        -9.66936150215048
      ],
      [
        "사장",
        -9.66952341582067
      ],
      [
        "▁한마디",
        -9.669574597817686
      ],
      [
        "ᄃ",
        -9.67033544644353
      ],
      [
        "▁없음.",
        -9.670905701686957
      ],
      [
        "스트",
        -9.67149979815552
      ],
      [
        "관계",
        -9.671539880873665
      ],
      [
        "▁출산",
        -9.671546217442884
      ],
      [
        "▁며느리",
        -9.67239404401762
      ],
      [
        "깨",
        -9.672960521576506
      ],
      [
        "는건데",
        -9.67398721859907
      ],
      [
        "▁없다고",
        -9.674852500588084
      ],
      [
        "▁잘못이",
        -9.675056417140684
      ],
      [
        "늘",
        -9.6750898533995
      ],
      [
        "ᄏᄏᄏᄏᄏᄏᄏ",
        -9.67534806771177
      ],
      [
        "▁대통령",
        -9.675416009943197
      ],
      [
        "고.",
        -9.676187265025252
      ],
      [
        "씨도",
        -9.676738762006828
      ],
      [
        "였다",
        -9.67697762139124
      ],
      [
        "▁팬들이",
        -9.677146566438802
      ],
      [
        "▁사이",
        -9.67717053148382
      ],
      [
        "▁해외",
        -9.678020481053125
      ],
      [
        "▁노출",
        -9.678324110353625
      ],
      [
        "▁줘",
        -9.678425722284564
      ],
      [
        "▁대해",
        -9.678718861264576
      ],
      [
        "▁따로",
        -9.679221632903122
      ],
      [
        "▁저는",
        -9.679671704674776
      ],
      [
        "▁한지민",
        -9.679819547647613
      ],
      [
        "▁과연",
        -9.679912707666904
      ],
      [
        "이혼",
        -9.680134875993687
      ],
      [
        "▁이제는",
        -9.681003427763017
      ],
      [
        "▁있나",
        -9.68108435386634
      ],
      [
        "8",
        -9.681210245051936
      ],
      [
        "딱",
        -9.682650170635045
      ],
      [
        "에선",
        -9.68282539751104
      ],
      [
        "▁ᄉ",
        -9.683198663141706
      ],
      [
        "하긴",
        -9.68365924311836
      ],
      [
        "~!!",
        -9.683766382519028
      ],
      [
        "▁저정도",
        -9.684192748647574
      ],
      [
        "▁대사",
        -9.684781348413384
      ],
      [
        "▁빚",
        -9.68488186774793
      ],
      [
        "▁금",
        -9.684942048199424
      ],
      [
        "▁학교",
        -9.686337602460108
      ],
      [
        "▁창",
        -9.68634723755186
      ],
      [
        "혼",
        -9.686520108764466
      ],
      [
        "▁끼리끼리",
        -9.687225087305064
      ],
      [
        "▁자신의",
        -9.68797342553534
      ],
      [
        "▁안보",
        -9.688420778963444
      ],
      [
        "▁설정",
        -9.689139285125304
      ],
      [
        "관리",
        -9.689358425960505
      ],
      [
        "▁갖고",
        -9.689536613268936
      ],
      [
        "재미",
        -9.689545113428174
      ],
      [
        "▁재혼",
        -9.689566013763567
      ],
      [
        "▁싶",
        -9.690645016433336
      ],
      [
        "▁성매매",
        -9.69077182977359
      ],
      [
        "▁혹시",
        -9.691041073604676
      ],
      [
        "▁더이상",
        -9.691125888356462
      ],
      [
        "북",
        -9.692616806368772
      ],
      [
        "쟁이",
        -9.692831685337692
      ],
      [
        "▁듣보",
        -9.692853980566433
      ],
      [
        "▁ᄀ",
        -9.692963395305984
      ],
      [
        "▁살빼",
        -9.693199354733624
      ],
      [
        "▁라고",
        -9.69335906397258
      ],
      [
        "였음",
        -9.694207264331304
      ],
      [
        "보니까",
        -9.694335048210489
      ],
      [
        "▁주인공",
        -9.694798014428455
      ],
      [
        "ᆯ수록",
        -9.695288211275658
      ],
      [
        "팔",
        -9.695326105295464
      ],
      [
        "▁포",
        -9.695354811723677
      ],
      [
        "▁놀",
        -9.695652411466089
      ],
      [
        "▁가식",
        -9.69609427847445
      ],
      [
        "▁나이에",
        -9.69612488543805
      ],
      [
        "▁가족들",
        -9.696601026828446
      ],
      [
        "▁연출",
        -9.696673085456023
      ],
      [
        "▁차이",
        -9.696949394124225
      ],
      [
        "해지",
        -9.697025212775038
      ],
      [
        "▁얼굴은",
        -9.697302039609225
      ],
      [
        "▁많아서",
        -9.697471329548648
      ],
      [
        "▁담",
        -9.69823499027341
      ],
      [
        "▁잘해",
        -9.699051336663851
      ],
      [
        "려면",
        -9.699513739687973
      ],
      [
        "▁응원해요",
        -9.699601948741384
      ],
      [
        "r",
        -9.70047493497552
      ],
      [
        "▁운전",
        -9.70074015972435
      ],
      [
        "곳",
        -9.70175932283981
      ],
      [
        "▁웃겨",
        -9.702338689552963
      ],
      [
        "건지",
        -9.702540274928603
      ],
      [
        "▁거리",
        -9.702880501323689
      ],
      [
        "▁듯.",
        -9.704131836031706
      ],
      [
        "다시",
        -9.704141310656794
      ],
      [
        "▁맞아",
        -9.705082889730267
      ],
      [
        "그렇게",
        -9.705476460330054
      ],
      [
        "이에요",
        -9.705982030895823
      ],
      [
        "큰",
        -9.70622872618255
      ],
      [
        "▁짜",
        -9.706284662399955
      ],
      [
        "놓",
        -9.706964058696354
      ],
      [
        "▁죽어",
        -9.706968866810854
      ],
      [
        "캐",
        -9.707337754206112
      ],
      [
        "언론",
        -9.707691460574878
      ],
      [
        "▁여러분",
        -9.707741043021654
      ],
      [
        "들만",
        -9.70846521741747
      ],
      [
        "▁하는지",
        -9.70861821489098
      ],
      [
        "▁채",
        -9.709157379021269
      ],
      [
        "▁악플러",
        -9.71021223172557
      ],
      [
        "ᆯ꺼",
        -9.710530019033383
      ],
      [
        "▁춤",
        -9.710854277651029
      ],
      [
        "오늘",
        -9.71089907767266
      ],
      [
        "▁헤",
        -9.711180978922098
      ],
      [
        "▁키워",
        -9.711369355257968
      ],
      [
        "▁결정",
        -9.711789645135712
      ],
      [
        "▁자식이",
        -9.712563728710569
      ],
      [
        "▁카톡",
        -9.71261545393021
      ],
      [
        "▁고통",
        -9.71264018182327
      ],
      [
        "▁남자들이",
        -9.71283191836281
      ],
      [
        "▁군",
        -9.713342538802172
      ],
      [
        "♡♡♡",
        -9.713459871038248
      ],
      [
        "▁이슈",
        -9.713819611345912
      ],
      [
        "▁실검",
        -9.714411563662438
      ],
      [
        "▁돌리",
        -9.714852382683972
      ],
      [
        "▁약간",
        -9.715217244608638
      ],
      [
        "고싶다",
        -9.715748513515678
      ],
      [
        "는거야",
        -9.715832241856866
      ],
      [
        "▁왜이리",
        -9.715851542807258
      ],
      [
        "▁국가",
        -9.715889817361967
      ],
      [
        "▁-",
        -9.716261960050236
      ],
      [
        "▁쓰고",
        -9.71657086836176
      ],
      [
        "ᆯ까봐",
        -9.716731627435973
      ],
      [
        "▁모르겠다",
        -9.717043211368743
      ],
      [
        "맞",
        -9.718872499639971
      ],
      [
        "▁설마",
        -9.71906274619916
      ],
      [
        "▁댓글이",
        -9.719237592885198
      ],
      [
        "보면서",
        -9.719921158039895
      ],
      [
        "자리",
        -9.71995364910017
      ],
      [
        "▁총",
        -9.720074909000123
      ],
      [
        "▁대신",
        -9.720430921094206
      ],
      [
        "적폐",
        -9.72116905536318
      ],
      [
        "▁결혼하고",
        -9.721603888517166
      ],
      [
        "하여",
        -9.72293326932109
      ],
      [
        "▁역대급",
        -9.723555754914964
      ],
      [
        "암",
        -9.724185123067985
      ],
      [
        "인간",
        -9.724755776233934
      ],
      [
        "▁적폐",
        -9.724766973849093
      ],
      [
        "▁듣보잡",
        -9.725919080663315
      ],
      [
        "부정",
        -9.72600191243993
      ],
      [
        "▁계약",
        -9.726077166483478
      ],
      [
        "세상",
        -9.72664842175282
      ],
      [
        "▁척",
        -9.726753226200426
      ],
      [
        "능",
        -9.726791552377437
      ],
      [
        "▁몰카",
        -9.727431539948286
      ],
      [
        "▁말하는",
        -9.727778861389703
      ],
      [
        "A",
        -9.729310811862709
      ],
      [
        "이래",
        -9.729662763180723
      ],
      [
        "▁동영상",
        -9.730206468209865
      ],
      [
        "같음",
        -9.730632139281791
      ],
      [
        "▁팀",
        -9.730867485502642
      ],
      [
        "▁의미",
        -9.731173333681564
      ],
      [
        "▁웃음",
        -9.731308230373529
      ],
      [
        "▁남주",
        -9.731539343013583
      ],
      [
        "▁따",
        -9.732072988402075
      ],
      [
        "▁솔까",
        -9.7321095132942
      ],
      [
        "▁식당",
        -9.732387652879698
      ],
      [
        "▁돌아오",
        -9.732523441183991
      ],
      [
        "는건지",
        -9.73266930077382
      ],
      [
        "응원합니다",
        -9.732678294745202
      ],
      [
        "▁내용이",
        -9.733103913155688
      ],
      [
        "ᆷ..",
        -9.73336506968376
      ],
      [
        "g",
        -9.733960204558974
      ],
      [
        "▁투",
        -9.735065934275832
      ],
      [
        "▁시즌2",
        -9.735103919139153
      ],
      [
        "▁봐야",
        -9.735139251399724
      ],
      [
        "량",
        -9.735201720976432
      ],
      [
        "팬들",
        -9.735500747099884
      ],
      [
        "애들이",
        -9.735608737987564
      ],
      [
        "ᄉ",
        -9.735651738582144
      ],
      [
        "▁남녀",
        -9.736290157962776
      ],
      [
        "최",
        -9.736709475218005
      ],
      [
        "제발",
        -9.736799745042504
      ],
      [
        "빵",
        -9.737197128279554
      ],
      [
        "보여",
        -9.737227936061082
      ],
      [
        "련",
        -9.73777085912515
      ],
      [
        "▁유튜브",
        -9.738106773107752
      ],
      [
        "ᆫ건데",
        -9.738359121276694
      ],
      [
        "▁고정",
        -9.73874519615672
      ],
      [
        "하러",
        -9.738980630534126
      ],
      [
        "▁중에",
        -9.740458105647004
      ],
      [
        "달라",
        -9.740569269128304
      ],
      [
        "▁칭찬",
        -9.740598934344945
      ],
      [
        "▁사랑하는",
        -9.740854936254884
      ],
      [
        "▁사장",
        -9.741896315227049
      ],
      [
        "▁돌려",
        -9.742037627045908
      ],
      [
        "▁아이즈원",
        -9.74212334369275
      ],
      [
        "f",
        -9.743265671421476
      ],
      [
        "▁오지게",
        -9.744320379689226
      ],
      [
        "▁아는데",
        -9.744952005381409
      ],
      [
        "▁한류",
        -9.74518129020518
      ],
      [
        "▁구혜선이",
        -9.745710428002138
      ],
      [
        "에서는",
        -9.745867290297916
      ],
      [
        "▁바랍니다.",
        -9.746725725174452
      ],
      [
        "갈",
        -9.74681306021374
      ],
      [
        "답",
        -9.746941318974088
      ],
      [
        "ᆫ거지",
        -9.747783175384868
      ],
      [
        "▁마치",
        -9.747846215194263
      ],
      [
        "▁장나라",
        -9.748497735682076
      ],
      [
        "하라고",
        -9.7492859837409
      ],
      [
        "정치",
        -9.749424037090096
      ],
      [
        "▁자신",
        -9.750067953483914
      ],
      [
        "▁인터넷",
        -9.750567838977176
      ],
      [
        "사람들이",
        -9.750616003427584
      ],
      [
        "▁매번",
        -9.75135465231517
      ],
      [
        "▁생각을",
        -9.751537525647445
      ],
      [
        "슬",
        -9.751592333921169
      ],
      [
        "ᅵ",
        -9.752031576860652
      ],
      [
        "▁저래",
        -9.752137275648463
      ],
      [
        "▁우울증",
        -9.752745867273068
      ],
      [
        "▁어쩔",
        -9.752964332977957
      ],
      [
        "▁병원",
        -9.753180968129914
      ],
      [
        "나보네",
        -9.75327253937598
      ],
      [
        "여서",
        -9.754234583741514
      ],
      [
        "▁살기",
        -9.754330411557206
      ],
      [
        "▁관",
        -9.754477933761404
      ],
      [
        "▁인간이",
        -9.755320672536843
      ],
      [
        "▁했던",
        -9.756232484622346
      ],
      [
        "▁귀엽고",
        -9.756566935926989
      ],
      [
        "▁부럽",
        -9.756646483881571
      ],
      [
        "▁말은",
        -9.756797665755649
      ],
      [
        "▁마누라",
        -9.756977461244045
      ],
      [
        "▁케미",
        -9.757061911199134
      ],
      [
        "ᆻ었는데",
        -9.757600204515716
      ],
      [
        "▁탈",
        -9.757695733993856
      ],
      [
        "그럼",
        -9.757888477206135
      ],
      [
        "ᆻ을듯",
        -9.75798886950699
      ],
      [
        "나와서",
        -9.758232616647993
      ],
      [
        "▁건강하게",
        -9.758669824406184
      ],
      [
        "했지",
        -9.759391865286355
      ],
      [
        "▁없으니",
        -9.7600901060859
      ],
      [
        "▁결혼해서",
        -9.760134936221071
      ],
      [
        "▁당시",
        -9.7602765975221
      ],
      [
        "봐도",
        -9.76074166367914
      ],
      [
        "느라",
        -9.760829489810698
      ],
      [
        "▁퇴출",
        -9.760979188789424
      ],
      [
        "ᄒᄒᄒ",
        -9.761045024041811
      ],
      [
        "▁전화",
        -9.76155590944863
      ],
      [
        "▁안타깝다",
        -9.761578075258514
      ],
      [
        "▁사재기",
        -9.761894439420304
      ],
      [
        "▁연예인은",
        -9.762015687856934
      ],
      [
        "▁요즘은",
        -9.76253213520624
      ],
      [
        "▁본다.",
        -9.762562938323452
      ],
      [
        "▁안재현이",
        -9.763331155646704
      ],
      [
        "▁저러",
        -9.763472113121312
      ],
      [
        "▁바래요",
        -9.76385987619507
      ],
      [
        "▁회",
        -9.763931614584116
      ],
      [
        "돌",
        -9.76397561990692
      ],
      [
        "▁것들",
        -9.764120537075248
      ],
      [
        "▁동네",
        -9.764239391741484
      ],
      [
        "▁역사",
        -9.764327083548672
      ],
      [
        "▁죽은",
        -9.76443545553996
      ],
      [
        "▁그러면",
        -9.764573097630926
      ],
      [
        "던데..",
        -9.76465409961418
      ],
      [
        "▁강호동",
        -9.765427610611482
      ],
      [
        "▁억지",
        -9.765510695398234
      ],
      [
        "▁혜나",
        -9.765902112222964
      ],
      [
        "▁남자들은",
        -9.76590317367166
      ],
      [
        "▁어울리",
        -9.766176743208089
      ],
      [
        "▁비판",
        -9.76630870241951
      ],
      [
        "▁와서",
        -9.76704623974234
      ],
      [
        "▁누구나",
        -9.767841148775895
      ],
      [
        "▁봐주",
        -9.76790957898169
      ],
      [
        "▁결혼식",
        -9.76800070758561
      ],
      [
        "▁부분",
        -9.768046275746752
      ],
      [
        "▁헨리",
        -9.768234960751103
      ],
      [
        "본다",
        -9.768550843722506
      ],
      [
        "▁엄",
        -9.768851839936543
      ],
      [
        "▁이정도",
        -9.769367769203992
      ],
      [
        "▁주변",
        -9.769465653193066
      ],
      [
        "▁컴백",
        -9.769482974272677
      ],
      [
        "▁도와주",
        -9.769510519414874
      ],
      [
        "▁행복해",
        -9.770026893464156
      ],
      [
        "▁가면",
        -9.770084720450814
      ],
      [
        "▁같아서",
        -9.77205406411306
      ],
      [
        "▁본인들",
        -9.772237738786965
      ],
      [
        "기자",
        -9.772394266361545
      ],
      [
        "동생",
        -9.773204215735277
      ],
      [
        "그래도",
        -9.7734935557253
      ],
      [
        "나요",
        -9.773496784883982
      ],
      [
        "▁한달",
        -9.774000403427586
      ],
      [
        "▁행복하",
        -9.774222473126578
      ],
      [
        "▁2년",
        -9.774224731696288
      ],
      [
        "▁니들은",
        -9.77468541340668
      ],
      [
        "▁잠깐",
        -9.775158703370778
      ],
      [
        "습니다.",
        -9.775296008361948
      ],
      [
        "▁포기",
        -9.776042613470572
      ],
      [
        "▁개돼지들",
        -9.776045673960226
      ],
      [
        "▁시대",
        -9.776316071365976
      ],
      [
        "이네요",
        -9.77705511673566
      ],
      [
        "d",
        -9.777159747920804
      ],
      [
        "▁컨셉",
        -9.777887971755192
      ],
      [
        "▁승",
        -9.778843782712505
      ],
      [
        "▁사랑이",
        -9.779180261191568
      ],
      [
        "▁아프",
        -9.779254879781842
      ],
      [
        "▁데리고",
        -9.779522991217217
      ],
      [
        "있으면",
        -9.779671834481723
      ],
      [
        "보다는",
        -9.77995398434766
      ],
      [
        "느니",
        -9.780464051163325
      ],
      [
        "▁축하드립니다",
        -9.780645380443897
      ],
      [
        "▁정우성",
        -9.78129272589415
      ],
      [
        "▁살아라",
        -9.781807417967697
      ],
      [
        "▁디",
        -9.782098061914962
      ],
      [
        "x",
        -9.782273371702509
      ],
      [
        "들어가",
        -9.782504372388606
      ],
      [
        "팅",
        -9.782575698681471
      ],
      [
        "지마세요",
        -9.78282320718369
      ],
      [
        "10",
        -9.782990762707517
      ],
      [
        "한것",
        -9.783593766735525
      ],
      [
        "▁있어야",
        -9.784436919491244
      ],
      [
        "▁하던",
        -9.784972532605224
      ],
      [
        "▁티비에",
        -9.785670223387305
      ],
      [
        ".......",
        -9.785967042615535
      ],
      [
        "▁워너원",
        -9.786392982588346
      ],
      [
        "▁먹는",
        -9.786460597285542
      ],
      [
        "▁육아",
        -9.78700960752287
      ],
      [
        "▁함소원",
        -9.787049923954484
      ],
      [
        "▁게스트",
        -9.787468667508048
      ],
      [
        "함?",
        -9.787483899399266
      ],
      [
        "ᆫ줄",
        -9.78780460063459
      ],
      [
        "져서",
        -9.788001391164524
      ],
      [
        "▁여자를",
        -9.788126140184064
      ],
      [
        "▁김태희",
        -9.788424434253235
      ],
      [
        "ᆻ구만",
        -9.788593581317
      ],
      [
        "▁세상이",
        -9.788844668307805
      ],
      [
        "할거",
        -9.788891224802589
      ],
      [
        "▁언제나",
        -9.789048388725568
      ],
      [
        "▁강간",
        -9.79018766821906
      ],
      [
        "월",
        -9.790565558516036
      ],
      [
        "알아",
        -9.790911081401571
      ],
      [
        "쓰고",
        -9.790932994128344
      ],
      [
        "조사",
        -9.7917963271267
      ],
      [
        "▁유승준",
        -9.792717975244296
      ],
      [
        "ᆫ다는",
        -9.792925097583025
      ],
      [
        "▁검사",
        -9.793476273015244
      ],
      [
        "▁주는",
        -9.79468041128861
      ],
      [
        "▁옆에",
        -9.79502889214345
      ],
      [
        "▁조심",
        -9.795391823203364
      ],
      [
        "다는",
        -9.795567096027266
      ],
      [
        "▁정상",
        -9.795689332523317
      ],
      [
        "침",
        -9.795899227805736
      ],
      [
        "▁위해서",
        -9.79680978805348
      ],
      [
        "▁멋있다",
        -9.797256973112727
      ],
      [
        "출신",
        -9.797554941118925
      ],
      [
        "▁=",
        -9.797605516023022
      ],
      [
        "애가",
        -9.798031773909702
      ],
      [
        "▁김구라",
        -9.79808876830069
      ],
      [
        "▁조선",
        -9.798166351624683
      ],
      [
        "ᄃᄃ",
        -9.798301168409974
      ],
      [
        "▁그만큼",
        -9.798593568233816
      ],
      [
        "하는것도",
        -9.7994409816486
      ],
      [
        "▁지지",
        -9.79951630337787
      ],
      [
        "c",
        -9.799861400239458
      ],
      [
        "이름",
        -9.799993260379424
      ],
      [
        "로서",
        -9.800023615542976
      ],
      [
        "▁예상",
        -9.800223674832058
      ],
      [
        "▁오해",
        -9.80038294026957
      ],
      [
        "▁했다고",
        -9.800408250928909
      ],
      [
        "▁쿵쾅이들",
        -9.801045052154516
      ],
      [
        "하네요",
        -9.801617219519558
      ],
      [
        "▁리얼",
        -9.801845368971728
      ],
      [
        "▁할수",
        -9.802090700806222
      ],
      [
        "들고",
        -9.802921450997886
      ],
      [
        "들과",
        -9.8032274737929
      ],
      [
        "▁아이가",
        -9.803983805423911
      ],
      [
        "▁얘도",
        -9.804181698655784
      ],
      [
        "▁이상하게",
        -9.804451352957532
      ],
      [
        "▁어째",
        -9.804600682224777
      ],
      [
        "▁기다려",
        -9.80475773377021
      ],
      [
        "▁칼",
        -9.804776575460728
      ],
      [
        "▁런닝맨",
        -9.804871398108563
      ],
      [
        "▁아이고",
        -9.805066416547575
      ],
      [
        "▁얘가",
        -9.805941312922952
      ],
      [
        "▁이래",
        -9.806169750344448
      ],
      [
        "▁하기",
        -9.806852568913186
      ],
      [
        "▁놈들",
        -9.807848196382512
      ],
      [
        "프로그램",
        -9.807969816881815
      ],
      [
        "한국",
        -9.80859662639574
      ],
      [
        "층",
        -9.808795184082031
      ],
      [
        "▁이뻐요",
        -9.809099367055545
      ],
      [
        "대상",
        -9.809458234080868
      ],
      [
        "▁함부로",
        -9.80956984647491
      ],
      [
        "였으면",
        -9.809832308570869
      ],
      [
        "▁나름",
        -9.810178879625123
      ],
      [
        "▁올라가",
        -9.810222750323216
      ],
      [
        "▁맘에",
        -9.81050071396066
      ],
      [
        "▁받은",
        -9.810954292381776
      ],
      [
        "▁자체",
        -9.81098886711821
      ],
      [
        "시키고",
        -9.811613125835615
      ],
      [
        "▁김치",
        -9.81165065261784
      ],
      [
        "▁둘째",
        -9.81191104224009
      ],
      [
        "▁생각하면",
        -9.812171646283756
      ],
      [
        "역시",
        -9.812598881709896
      ],
      [
        "▁보다가",
        -9.813629168598368
      ],
      [
        "탕",
        -9.81369918890024
      ],
      [
        "▁새끼",
        -9.814144279253046
      ],
      [
        "▁탈퇴",
        -9.81439963167664
      ],
      [
        "▁않나",
        -9.814594113918124
      ],
      [
        "▁몇년",
        -9.814970037951628
      ],
      [
        "▁홧팅",
        -9.815091059963155
      ],
      [
        "이미지",
        -9.81524774697646
      ],
      [
        "▁안나",
        -9.815307596964916
      ],
      [
        "▁흠",
        -9.815348753158462
      ],
      [
        "▁같고",
        -9.815575238143603
      ],
      [
        "▁감독",
        -9.815897064365648
      ],
      [
        "주의",
        -9.816615217326309
      ],
      [
        "것만",
        -9.816798213613543
      ],
      [
        "다...",
        -9.81812163793638
      ],
      [
        "료",
        -9.818263627469594
      ],
      [
        "▁오지",
        -9.81865961211659
      ],
      [
        "건가요?",
        -9.818864646981469
      ],
      [
        "것이",
        -9.819894845114632
      ],
      [
        "▁왤케",
        -9.819899977925347
      ],
      [
        "▁설레",
        -9.820021758408735
      ],
      [
        "▁자숙",
        -9.820068330353896
      ],
      [
        "▁클럽",
        -9.821173826260193
      ],
      [
        "▁상상",
        -9.821345250780157
      ],
      [
        "▁추억",
        -9.82210614995038
      ],
      [
        "▁턱",
        -9.822144304723086
      ],
      [
        "▁모르겠지만",
        -9.822363261668263
      ],
      [
        "▁재산",
        -9.82311850713757
      ],
      [
        "▁국민들",
        -9.823401316361869
      ],
      [
        "이렇게",
        -9.823567990817008
      ],
      [
        "▁심지어",
        -9.823592726296928
      ],
      [
        "키로",
        -9.82366333203053
      ],
      [
        "▁철",
        -9.82377125623351
      ],
      [
        "블",
        -9.823803702100292
      ],
      [
        "▁보이는",
        -9.824092111343612
      ],
      [
        "거라",
        -9.82423747631991
      ],
      [
        "최고",
        -9.824242146840882
      ],
      [
        "ᆼ이",
        -9.824813355042073
      ],
      [
        "▁그만좀",
        -9.825554330532992
      ],
      [
        "▁재벌",
        -9.826652295322136
      ],
      [
        "▁시절",
        -9.827451401170633
      ],
      [
        "▁나래",
        -9.828152910546075
      ],
      [
        "가면",
        -9.828164839135487
      ],
      [
        "▁나혼자",
        -9.828341152197735
      ],
      [
        "▁악플이",
        -9.828513454283868
      ],
      [
        "▁솔로",
        -9.82963556765814
      ],
      [
        "▁괜찮은",
        -9.829636076684968
      ],
      [
        "부리",
        -9.829637910012805
      ],
      [
        "▁안좋아",
        -9.829941759124026
      ],
      [
        "▁게임",
        -9.830082854431012
      ],
      [
        "▁내보내",
        -9.830095471859329
      ],
      [
        "기로",
        -9.83045790192703
      ],
      [
        "▁대화",
        -9.831281138720954
      ],
      [
        "▁삶",
        -9.831713382455405
      ],
      [
        "▁어느정도",
        -9.83239433467994
      ],
      [
        "▁강타",
        -9.83300657203675
      ],
      [
        "▁결혼하면",
        -9.83315028145331
      ],
      [
        "▁그렇다고",
        -9.83318032839421
      ],
      [
        "▁담배",
        -9.833275680654316
      ],
      [
        "▁안티",
        -9.833517221341946
      ],
      [
        "~~~~~",
        -9.833606628958943
      ],
      [
        "▁한데",
        -9.83370066442762
      ],
      [
        "▁살면",
        -9.834174220067002
      ],
      [
        "▁서울",
        -9.834783752463403
      ],
      [
        "▁양심",
        -9.83535547159294
      ],
      [
        "▁청",
        -9.835735462638173
      ],
      [
        "▁세월호",
        -9.836751455299735
      ],
      [
        "▁100",
        -9.836938343892566
      ],
      [
        "▁음원",
        -9.837160504396936
      ],
      [
        "악플",
        -9.837736638243612
      ],
      [
        "▁가져",
        -9.838318209094396
      ],
      [
        "▁힘들",
        -9.838693692590963
      ],
      [
        "▁오늘도",
        -9.838720630968878
      ],
      [
        "▁너무너무",
        -9.839169182960877
      ],
      [
        "승리",
        -9.839363861370764
      ],
      [
        "일듯",
        -9.839960959127978
      ],
      [
        "▁이쁘네",
        -9.840235109786832
      ],
      [
        "▁위한",
        -9.840784804550026
      ],
      [
        "▁만드",
        -9.840794569410914
      ],
      [
        "▁실제",
        -9.840850577585613
      ],
      [
        "▁버리",
        -9.840862608110283
      ],
      [
        "▁참고",
        -9.84093964807003
      ],
      [
        "▁같아요.",
        -9.843137981257646
      ],
      [
        "▁올",
        -9.843479804458298
      ],
      [
        "▁입고",
        -9.844858891359998
      ],
      [
        "페",
        -9.845397665923478
      ],
      [
        "▁왜이렇게",
        -9.845948769322542
      ],
      [
        "▁기사로",
        -9.84605111089461
      ],
      [
        "▁만약",
        -9.846481443583832
      ],
      [
        "▁욕하고",
        -9.846660000232909
      ],
      [
        "그리",
        -9.847349192572947
      ],
      [
        "▁웃",
        -9.847400968357563
      ],
      [
        "나는",
        -9.847564007463124
      ],
      [
        "▁재밌어",
        -9.84780694510962
      ],
      [
        "▁받는",
        -9.848055747158636
      ],
      [
        "▁감사",
        -9.848184447885558
      ],
      [
        "ᆯ게",
        -9.849509229178928
      ],
      [
        "요즘",
        -9.850459713813386
      ],
      [
        "▁앞에서",
        -9.850873048698984
      ],
      [
        "▁피부",
        -9.850937717725598
      ],
      [
        "▁나오는거",
        -9.851361244009375
      ],
      [
        "수가",
        -9.851528821605749
      ],
      [
        "u",
        -9.85173100654211
      ],
      [
        "▁화이팅!",
        -9.85189961009988
      ],
      [
        "상이",
        -9.852506170750218
      ],
      [
        "해놓고",
        -9.852608406412124
      ],
      [
        "▁못하게",
        -9.852893564318528
      ],
      [
        "▁세금",
        -9.853313784234649
      ],
      [
        "▁반응",
        -9.855243348121707
      ],
      [
        "감이",
        -9.856196804993852
      ],
      [
        "되지",
        -9.856345533806426
      ],
      [
        "시상식",
        -9.856368667092395
      ],
      [
        "혁",
        -9.856732879589597
      ],
      [
        "▁거기서",
        -9.85692840830218
      ],
      [
        "로써",
        -9.857305353975354
      ],
      [
        "▁달리",
        -9.85736259612129
      ],
      [
        "▁낳",
        -9.858202180676567
      ],
      [
        "내가",
        -9.858369850835022
      ],
      [
        "▁9",
        -9.85838445145108
      ],
      [
        "거같은데",
        -9.85891054409327
      ],
      [
        "▁박명수",
        -9.859338962300091
      ],
      [
        "멤버",
        -9.859782685815428
      ],
      [
        "했어요",
        -9.860183350878437
      ],
      [
        "▁연기자",
        -9.86064622440869
      ],
      [
        "때도",
        -9.861086808657213
      ],
      [
        "▁아빠가",
        -9.861261646630208
      ],
      [
        "냐..",
        -9.861309609560756
      ],
      [
        "▁대본",
        -9.861434493396445
      ],
      [
        "잖아요",
        -9.86166911252419
      ],
      [
        "▁하지말고",
        -9.86167180677554
      ],
      [
        "▁떼",
        -9.862257816408563
      ],
      [
        "▁않게",
        -9.863020762813557
      ],
      [
        "▁돈으로",
        -9.863328061747442
      ],
      [
        "헤",
        -9.863563926952745
      ],
      [
        "?!",
        -9.86380751728973
      ],
      [
        "ᆫ걸",
        -9.86386270185282
      ],
      [
        "▁있었는데",
        -9.864133788499718
      ],
      [
        "▁골",
        -9.864235205665912
      ],
      [
        "자고",
        -9.864290777975636
      ],
      [
        "▁대학",
        -9.864309834261638
      ],
      [
        "보임",
        -9.86440128809564
      ],
      [
        "▁표절",
        -9.864592516378224
      ],
      [
        "▁주고",
        -9.865749170150202
      ],
      [
        "▁퍼",
        -9.866473158742789
      ],
      [
        "▁쭉",
        -9.866769629549372
      ],
      [
        "이니까",
        -9.868687008442553
      ],
      [
        "▁들어오",
        -9.868757633357824
      ],
      [
        "▁눈치",
        -9.869111780957454
      ],
      [
        "이라서",
        -9.869248578930758
      ],
      [
        "해주고",
        -9.869413530932633
      ],
      [
        "▁없는거",
        -9.870175296031183
      ],
      [
        "▁몇번",
        -9.870321120663618
      ],
      [
        "▁상관",
        -9.870589605803342
      ],
      [
        "▁무죄",
        -9.870704284483974
      ],
      [
        "ᆺ으면",
        -9.871252211445812
      ],
      [
        "▁하하",
        -9.871463898907216
      ],
      [
        "많아",
        -9.871593882001417
      ],
      [
        "▁평가",
        -9.872014534760504
      ],
      [
        "잖아.",
        -9.872064700014102
      ],
      [
        "▁알게",
        -9.872126069135522
      ],
      [
        "▁떠나서",
        -9.87278134114108
      ],
      [
        "▁정작",
        -9.872927043451764
      ],
      [
        "ᆯ줄",
        -9.873461951916443
      ],
      [
        "주면",
        -9.87355901977648
      ],
      [
        "▁지겹다",
        -9.873665041027538
      ],
      [
        "▁형님",
        -9.87394861266592
      ],
      [
        "▁잘나가",
        -9.87429972256248
      ],
      [
        "ᆻ을까?",
        -9.874302301666663
      ],
      [
        "▁뒷",
        -9.874813342913214
      ],
      [
        "도아니고",
        -9.8752496936475
      ],
      [
        "▁작가님",
        -9.87564301422426
      ],
      [
        "듯.",
        -9.875827892296698
      ],
      [
        "볼",
        -9.876907058547696
      ],
      [
        "ᆺ어",
        -9.877547670997078
      ],
      [
        "▁분량",
        -9.87824675847035
      ],
      [
        "▁부터",
        -9.879015855922468
      ],
      [
        "하지마라",
        -9.879040892288408
      ],
      [
        "▁위로",
        -9.879261296602504
      ],
      [
        "례",
        -9.879820964691795
      ],
      [
        "지말자",
        -9.879911232393583
      ],
      [
        "▁이상해",
        -9.880022365781004
      ],
      [
        "▁인물",
        -9.880362701156743
      ],
      [
        "▁유이",
        -9.8814520145637
      ],
      [
        "▁풀",
        -9.881719583513938
      ],
      [
        "▁예뻐요",
        -9.88176449069677
      ],
      [
        "▁내일",
        -9.882031733753358
      ],
      [
        "▁체",
        -9.882103816238937
      ],
      [
        "문화",
        -9.88227062494504
      ],
      [
        "▁만들고",
        -9.882356872175611
      ],
      [
        "▁하던데",
        -9.882697315716646
      ],
      [
        "▁이유는",
        -9.88316492114044
      ],
      [
        "▁표",
        -9.883555972343864
      ],
      [
        "충들",
        -9.883627649659296
      ],
      [
        "▁이쁨",
        -9.883655199477309
      ],
      [
        "▁남성",
        -9.883758029429194
      ],
      [
        "▁주작",
        -9.883895230777926
      ],
      [
        "▁인상",
        -9.884102218587744
      ],
      [
        "▁뭐든",
        -9.88501685135984
      ],
      [
        "스러운",
        -9.88516020612301
      ],
      [
        "▁아닌가요?",
        -9.88523636547929
      ],
      [
        "▁가족이",
        -9.885475065848505
      ],
      [
        "▁정도면",
        -9.88562152190515
      ],
      [
        "지않아",
        -9.885648936532345
      ],
      [
        "사실",
        -9.88574604166146
      ],
      [
        "▁말투",
        -9.886442839695633
      ],
      [
        "▁만큼",
        -9.886593822142988
      ],
      [
        "옷",
        -9.887237447107587
      ],
      [
        "▁내리",
        -9.88740505283236
      ],
      [
        "▁작은",
        -9.887637465197692
      ],
      [
        "▁성훈",
        -9.887790335636211
      ],
      [
        "였어",
        -9.888440220286247
      ],
      [
        "▁뿐",
        -9.888688804351435
      ],
      [
        "시절",
        -9.888761509979853
      ],
      [
        "▁볼때마다",
        -9.88892217220818
      ],
      [
        "▁검색",
        -9.890231715113032
      ],
      [
        "▁뭐하는",
        -9.89040850604304
      ],
      [
        "▁비주얼",
        -9.890666296446293
      ],
      [
        "▁생겨",
        -9.890826559475778
      ],
      [
        "▁말라",
        -9.890888478367042
      ],
      [
        "▁성희롱",
        -9.890987145462653
      ],
      [
        "▁좌파",
        -9.89118582798875
      ],
      [
        "▁보인다",
        -9.891196774425172
      ],
      [
        "▁!!",
        -9.891732183928587
      ],
      [
        "▁김종민",
        -9.891751968271963
      ],
      [
        "▁좋겠네요",
        -9.89215703594338
      ],
      [
        "이형",
        -9.89229300381792
      ],
      [
        "관심",
        -9.892785032373196
      ],
      [
        "행복하세요",
        -9.89286689870226
      ],
      [
        "둘이",
        -9.893275437503462
      ],
      [
        "시는",
        -9.8933758061053
      ],
      [
        "▁너희",
        -9.893516621404157
      ],
      [
        "▁생각했는데",
        -9.893530056761035
      ],
      [
        "▁죽이",
        -9.893693893482606
      ],
      [
        "자기",
        -9.893792382586383
      ],
      [
        "▁되면",
        -9.89416980804334
      ],
      [
        "한것도",
        -9.89496338919357
      ],
      [
        "▁존",
        -9.89580319029601
      ],
      [
        "앞으로",
        -9.89584971320423
      ],
      [
        "i",
        -9.895962318755249
      ],
      [
        "자체가",
        -9.895999897285233
      ],
      [
        "▁윤아",
        -9.89621657060851
      ],
      [
        "▁뷔",
        -9.89631071836622
      ],
      [
        "ᆻ나보네",
        -9.89657986634392
      ],
      [
        "존",
        -9.896808746048375
      ],
      [
        "딩",
        -9.897139970454615
      ],
      [
        "자랑",
        -9.897418211016644
      ],
      [
        "▁지민",
        -9.897615902403707
      ],
      [
        "▁하긴",
        -9.8985855147422
      ],
      [
        "▁이상민",
        -9.898733740500704
      ],
      [
        "▁소름",
        -9.89913869638577
      ],
      [
        "▁폭력",
        -9.899216047741763
      ],
      [
        "켜",
        -9.89928217453927
      ],
      [
        "▁잼나",
        -9.89964610516568
      ],
      [
        "도록",
        -9.90013308485288
      ],
      [
        "▁하냐",
        -9.900148406461904
      ],
      [
        "소속사",
        -9.900459981219296
      ],
      [
        "▁루머",
        -9.900486088929783
      ],
      [
        "▁갑",
        -9.90110948657149
      ],
      [
        "인척",
        -9.901288135565526
      ],
      [
        "▁하는건",
        -9.901328451119518
      ],
      [
        "▁장자연",
        -9.901810694448464
      ],
      [
        "▁카메라",
        -9.902171941278656
      ],
      [
        "▁A",
        -9.902373565443156
      ],
      [
        "▁선물",
        -9.902649935635232
      ],
      [
        "b",
        -9.902713160356107
      ],
      [
        "▁기획사",
        -9.903289883674924
      ],
      [
        "▁듣",
        -9.903317887285432
      ],
      [
        "▁여자랑",
        -9.904295489710371
      ],
      [
        "▁애도",
        -9.904951406184871
      ],
      [
        "▁교육",
        -9.904962139505008
      ],
      [
        "치는",
        -9.905100407578733
      ],
      [
        "▁개소리",
        -9.906175579845268
      ],
      [
        "▁마시고",
        -9.906345458499157
      ],
      [
        "화이팅",
        -9.906547457408934
      ],
      [
        "▁민폐",
        -9.907258323045344
      ],
      [
        "▁멋져요",
        -9.90774037844878
      ],
      [
        "▁졸라",
        -9.907839409369792
      ],
      [
        "셈",
        -9.90799852983792
      ],
      [
        "▁영어",
        -9.908083841662432
      ],
      [
        "많",
        -9.90875914924149
      ],
      [
        "▁당하",
        -9.909767310127735
      ],
      [
        "▁한참",
        -9.91008590166955
      ],
      [
        "▁그렇",
        -9.91032153212582
      ],
      [
        "▁질",
        -9.910468115306497
      ],
      [
        "얘",
        -9.910545377849092
      ],
      [
        "▁알아야",
        -9.910735635383904
      ],
      [
        "▁ᄏᄏᄏᄏᄏᄏᄏᄏᄏ",
        -9.910783534175367
      ],
      [
        "▁개그",
        -9.910805887655004
      ],
      [
        "▁노래도",
        -9.91081459600272
      ],
      [
        "n",
        -9.91135710197523
      ],
      [
        "▁나라가",
        -9.91137378779518
      ],
      [
        "▁그러니까",
        -9.91216026471259
      ],
      [
        "스타일",
        -9.912517207372806
      ],
      [
        "항상",
        -9.9125445399395
      ],
      [
        "애들은",
        -9.912902705557286
      ],
      [
        "하다.",
        -9.912939899666725
      ],
      [
        "▁너무나",
        -9.912965211431578
      ],
      [
        "▁웃고",
        -9.913231246891549
      ],
      [
        "내용",
        -9.91341650271148
      ],
      [
        "▁싶다.",
        -9.913418488726252
      ],
      [
        "▁#",
        -9.913894181761403
      ],
      [
        "▁남들",
        -9.914243996519588
      ],
      [
        "한테는",
        -9.914344336943142
      ],
      [
        "▁시어머니",
        -9.914799178320209
      ],
      [
        "▁뭔데",
        -9.914851203245084
      ],
      [
        "▁달라",
        -9.915568795124573
      ],
      [
        "랄",
        -9.916642688779357
      ],
      [
        "▁사망",
        -9.917668054435158
      ],
      [
        "▁메인",
        -9.917919270940418
      ],
      [
        "O",
        -9.918187469159696
      ],
      [
        "▁있게",
        -9.918302503485602
      ],
      [
        "20",
        -9.918307352308512
      ],
      [
        "▁때려",
        -9.91836651590283
      ],
      [
        "▁승리가",
        -9.918442137521788
      ],
      [
        "▁되는데",
        -9.918510915366436
      ],
      [
        "지않",
        -9.918556463083046
      ],
      [
        "사고",
        -9.918688081910847
      ],
      [
        "▁망치",
        -9.918705155915308
      ],
      [
        "▁쓰레기들",
        -9.919078132804875
      ],
      [
        "▁가끔",
        -9.919085323660994
      ],
      [
        "▁정리",
        -9.919714283627766
      ],
      [
        "칠",
        -9.920157343873498
      ],
      [
        "웃",
        -9.920757163772054
      ],
      [
        "▁소식",
        -9.921000400664903
      ],
      [
        "▁억지로",
        -9.921098896040004
      ],
      [
        "아닌가?",
        -9.92131913792396
      ],
      [
        "먼",
        -9.922449601871971
      ],
      [
        "▁오랜만에",
        -9.922632823249266
      ],
      [
        "▁신인",
        -9.92274335692839
      ],
      [
        "▁싶어서",
        -9.922897499306028
      ],
      [
        "▁배우가",
        -9.922995055027885
      ],
      [
        "▁부디",
        -9.923196211182017
      ],
      [
        "론",
        -9.92368517623723
      ],
      [
        "거든",
        -9.924134257797942
      ],
      [
        "▁청원",
        -9.924200425176114
      ],
      [
        "▁눈물이",
        -9.924881817677573
      ],
      [
        "▁그런가",
        -9.925240815836723
      ],
      [
        "▁편하게",
        -9.925543805642764
      ],
      [
        "▁아름다운",
        -9.926321893079432
      ],
      [
        "▁이쁜데",
        -9.92658007145501
      ],
      [
        "▁어쩌",
        -9.926791192582764
      ],
      [
        "▁알리",
        -9.926979790335196
      ],
      [
        "아주",
        -9.927590825021213
      ],
      [
        "▁바꿔",
        -9.927764691771644
      ],
      [
        "▁점",
        -9.927864626206752
      ],
      [
        "▁내려",
        -9.92794905749246
      ],
      [
        "▁얼른",
        -9.928258501560087
      ],
      [
        "했",
        -9.92851926229426
      ],
      [
        "것같은데",
        -9.928571800718531
      ],
      [
        "더라도",
        -9.928613765486938
      ],
      [
        "▁힐링",
        -9.928695990973432
      ],
      [
        "▁눈빛",
        -9.92881529629716
      ],
      [
        "▁죄가",
        -9.928835256652867
      ],
      [
        "▁단어",
        -9.929182174764035
      ],
      [
        "▁재밌다",
        -9.929676362712744
      ],
      [
        "▁다녀",
        -9.93013949460462
      ],
      [
        "▁마무리",
        -9.930558797889343
      ],
      [
        "▁덕분에",
        -9.93080668934895
      ],
      [
        "▁열등감",
        -9.93260575790923
      ],
      [
        "국민",
        -9.932839511394782
      ],
      [
        "▁안좋은",
        -9.933158101050545
      ],
      [
        "혼자",
        -9.933411247449248
      ],
      [
        "▁배우님",
        -9.934460470993194
      ],
      [
        "건강",
        -9.934554336639913
      ],
      [
        "ᆷ을",
        -9.934561381548466
      ],
      [
        "▁미쳐",
        -9.934830573311238
      ],
      [
        "ᅲᅲᅲᅲ",
        -9.935014428099231
      ],
      [
        "겠다.",
        -9.93555141044805
      ],
      [
        "▁시기",
        -9.93576885918889
      ],
      [
        "▁취급",
        -9.936113984087813
      ],
      [
        "때는",
        -9.936234723815272
      ],
      [
        "▁넣어",
        -9.936358429808298
      ],
      [
        "나오는",
        -9.936932750808928
      ],
      [
        "▁여러",
        -9.937037458013307
      ],
      [
        "▁기자야",
        -9.937171115541128
      ],
      [
        "ᆻ네.",
        -9.93725431088044
      ],
      [
        "▁맞지",
        -9.937389264808669
      ],
      [
        "&",
        -9.937467798640526
      ],
      [
        "하거나",
        -9.937482645978363
      ],
      [
        "▁여기저기",
        -9.93787140947092
      ],
      [
        "쥬",
        -9.938322834161015
      ],
      [
        "▁미나",
        -9.938387991169426
      ],
      [
        "ᆻ던거",
        -9.938700476356018
      ],
      [
        "좋다",
        -9.93888209855745
      ],
      [
        "▁기안84",
        -9.939261185816466
      ],
      [
        "▁꽤",
        -9.93944163643042
      ],
      [
        "▁하게",
        -9.940176327899756
      ],
      [
        "저런",
        -9.94042991956319
      ],
      [
        "▁일부",
        -9.940699295977431
      ],
      [
        "ᆯ지",
        -9.94195724240819
      ],
      [
        "▁남아",
        -9.942375157708064
      ],
      [
        "해줘",
        -9.942976876472276
      ],
      [
        "하세요.",
        -9.943304396397773
      ],
      [
        "긴한데",
        -9.943329961197373
      ],
      [
        "▁당장",
        -9.943364186826756
      ],
      [
        "사회",
        -9.9441301325331
      ],
      [
        "이뻐",
        -9.944373851543386
      ],
      [
        "난다",
        -9.944877282711342
      ],
      [
        "▁웃는",
        -9.9448991356054
      ],
      [
        "▁마니",
        -9.944997687649554
      ],
      [
        "네~",
        -9.945325524307638
      ],
      [
        "▁분이",
        -9.945569819306758
      ],
      [
        "▁조카",
        -9.946514578037371
      ],
      [
        "▁미리",
        -9.94778223643139
      ],
      [
        "▁부정",
        -9.947801263640136
      ],
      [
        "▁맘이",
        -9.948251376675426
      ],
      [
        "▁끌어",
        -9.948838326894442
      ],
      [
        "하더라",
        -9.949355711545852
      ],
      [
        "▁다리",
        -9.949531880327203
      ],
      [
        "▁그만해라",
        -9.949647177567105
      ],
      [
        "▁판",
        -9.949684344043217
      ],
      [
        "▁살아가",
        -9.94988375720096
      ],
      [
        "덜",
        -9.950363952030273
      ],
      [
        "▁작가가",
        -9.950922962166892
      ],
      [
        "있게",
        -9.951464845419174
      ],
      [
        "▁씹",
        -9.951668008393646
      ],
      [
        "끄",
        -9.952019807649611
      ],
      [
        "몰라",
        -9.952432931511314
      ],
      [
        "▁방송국",
        -9.952594501614405
      ],
      [
        "▁애를",
        -9.95261266382084
      ],
      [
        "▁우와",
        -9.952743781595409
      ],
      [
        "▁드라마에서",
        -9.953262911854798
      ],
      [
        "▁걸려",
        -9.953391771109088
      ],
      [
        "▁결혼한",
        -9.953523972043852
      ],
      [
        "더라구요",
        -9.953945872905493
      ],
      [
        "▁해보",
        -9.95415730528592
      ],
      [
        "▁부자",
        -9.95456301680786
      ],
      [
        "▁설",
        -9.955370816198252
      ],
      [
        "▁성격이",
        -9.955426046359708
      ],
      [
        "▁재밌",
        -9.9555262045172
      ],
      [
        "▁어쩜",
        -9.955631462974612
      ],
      [
        "▁똑바로",
        -9.955857742040203
      ],
      [
        "겠지.",
        -9.956247084355455
      ],
      [
        "▁친구들",
        -9.956381639839044
      ],
      [
        "▁하다",
        -9.956449728622996
      ],
      [
        "▁화나",
        -9.956624385648258
      ],
      [
        "▁쉴드",
        -9.957456846786249
      ],
      [
        "^",
        -9.957583882029134
      ],
      [
        "▁최수종",
        -9.958542481059748
      ],
      [
        "▁쪼",
        -9.958899060187058
      ],
      [
        "▁느껴지",
        -9.959383318830389
      ],
      [
        "자는",
        -9.959834011554374
      ],
      [
        "▁책",
        -9.959845705451864
      ],
      [
        "▁꼬라지",
        -9.960328273361291
      ],
      [
        "▁입장에서",
        -9.96080262573762
      ],
      [
        "먹어",
        -9.961025210014691
      ],
      [
        "슈",
        -9.961162831705472
      ],
      [
        "▁생각하",
        -9.961335394516318
      ],
      [
        "▁아티스트",
        -9.961584285091618
      ],
      [
        "▁비율",
        -9.961671847199923
      ],
      [
        "M",
        -9.961781306116752
      ],
      [
        "▁시청",
        -9.9620746548098
      ],
      [
        "▁좋았는데",
        -9.963079700250027
      ],
      [
        "사귀",
        -9.963335707706516
      ],
      [
        "ᆻ어도",
        -9.963387515474489
      ],
      [
        "▁금방",
        -9.96350608884032
      ],
      [
        "▁한국인",
        -9.963581560749011
      ],
      [
        "이건",
        -9.964096412323428
      ],
      [
        "▁괴롭히",
        -9.964141249398011
      ],
      [
        "▁끝이",
        -9.964156441428104
      ],
      [
        "▁일베",
        -9.964472063113996
      ],
      [
        "▁안됨",
[...]
